{
  "version": "1.0",
  "truncation": null,
  "padding": null,
  "added_tokens": [
    {
      "id": 0,
      "content": "[PAD]",
      "single_word": false,
      "lstrip": false,
      "rstrip": false,
      "normalized": false,
      "special": true
    },
    {
      "id": 1,
      "content": "[UNK]",
      "single_word": false,
      "lstrip": false,
      "rstrip": false,
      "normalized": false,
      "special": true
    },
    {
      "id": 2,
      "content": "<s>",
      "single_word": false,
      "lstrip": false,
      "rstrip": false,
      "normalized": false,
      "special": true
    },
    {
      "id": 3,
      "content": "</s>",
      "single_word": false,
      "lstrip": false,
      "rstrip": false,
      "normalized": false,
      "special": true
    },
    {
      "id": 4,
      "content": "[CLS]",
      "single_word": false,
      "lstrip": false,
      "rstrip": false,
      "normalized": false,
      "special": true
    },
    {
      "id": 5,
      "content": "[SEP]",
      "single_word": false,
      "lstrip": false,
      "rstrip": false,
      "normalized": false,
      "special": true
    },
    {
      "id": 6,
      "content": "[MASK]",
      "single_word": false,
      "lstrip": false,
      "rstrip": false,
      "normalized": false,
      "special": true
    }
  ],
  "normalizer": null,
  "pre_tokenizer": {
    "type": "Sequence",
    "pretokenizers": [
      {
        "type": "WhitespaceSplit"
      },
      {
        "type": "Metaspace",
        "replacement": "▁",
        "prepend_scheme": "always",
        "split": true
      }
    ]
  },
  "post_processor": {
    "type": "TemplateProcessing",
    "single": [
      {
        "Sequence": {
          "id": "A",
          "type_id": 0
        }
      },
      {
        "SpecialToken": {
          "id": "</s>",
          "type_id": 0
        }
      }
    ],
    "pair": [
      {
        "Sequence": {
          "id": "A",
          "type_id": 0
        }
      },
      {
        "SpecialToken": {
          "id": "</s>",
          "type_id": 0
        }
      },
      {
        "Sequence": {
          "id": "B",
          "type_id": 0
        }
      },
      {
        "SpecialToken": {
          "id": "</s>",
          "type_id": 0
        }
      }
    ],
    "special_tokens": {
      "</s>": {
        "id": "</s>",
        "ids": [
          3
        ],
        "tokens": [
          "</s>"
        ]
      }
    }
  },
  "decoder": {
    "type": "Metaspace",
    "replacement": "▁",
    "prepend_scheme": "always",
    "split": true
  },
  "model": {
    "type": "Unigram",
    "unk_id": 2,
    "vocab": [
      [
        "[PAD]",
        0.0
      ],
      [
        "[UNK]",
        0.0
      ],
      [
        "<s>",
        0.0
      ],
      [
        "</s>",
        0.0
      ],
      [
        "[CLS]",
        0.0
      ],
      [
        "[SEP]",
        0.0
      ],
      [
        "[MASK]",
        0.0
      ],
      [
        "\n",
        0.0
      ],
      [
        "\t",
        0.0
      ],
      [
        "\r",
        0.0
      ],
      [
        "▁▁▁▁▁▁▁▁▁▁▁▁▁▁▁▁▁▁▁▁▁▁▁▁",
        0.0
      ],
      [
        "▁▁▁▁▁▁▁▁▁▁▁▁▁▁▁▁▁▁▁▁▁▁▁",
        0.0
      ],
      [
        "▁▁▁▁▁▁▁▁▁▁▁▁▁▁▁▁▁▁▁▁▁▁",
        0.0
      ],
      [
        "▁▁▁▁▁▁▁▁▁▁▁▁▁▁▁▁▁▁▁▁▁",
        0.0
      ],
      [
        "▁▁▁▁▁▁▁▁▁▁▁▁▁▁▁▁▁▁▁▁",
        0.0
      ],
      [
        "▁▁▁▁▁▁▁▁▁▁▁▁▁▁▁▁▁▁▁",
        0.0
      ],
      [
        "▁▁▁▁▁▁▁▁▁▁▁▁▁▁▁▁▁▁",
        0.0
      ],
      [
        "▁▁▁▁▁▁▁▁▁▁▁▁▁▁▁▁▁",
        0.0
      ],
      [
        "▁▁▁▁▁▁▁▁▁▁▁▁▁▁▁▁",
        0.0
      ],
      [
        "▁▁▁▁▁▁▁▁▁▁▁▁▁▁▁",
        0.0
      ],
      [
        "▁▁▁▁▁▁▁▁▁▁▁▁▁▁",
        0.0
      ],
      [
        "▁▁▁▁▁▁▁▁▁▁▁▁▁",
        0.0
      ],
      [
        "▁▁▁▁▁▁▁▁▁▁▁▁",
        0.0
      ],
      [
        "▁▁▁▁▁▁▁▁▁▁▁",
        0.0
      ],
      [
        "▁▁▁▁▁▁▁▁▁▁",
        0.0
      ],
      [
        "▁▁▁▁▁▁▁▁▁",
        0.0
      ],
      [
        "▁▁▁▁▁▁▁▁",
        0.0
      ],
      [
        "▁▁▁▁▁▁▁",
        0.0
      ],
      [
        "▁▁▁▁▁▁",
        0.0
      ],
      [
        "▁▁▁▁▁",
        0.0
      ],
      [
        "▁▁▁▁",
        0.0
      ],
      [
        "▁▁▁",
        0.0
      ],
      [
        "▁▁",
        0.0
      ],
      [
        "▁",
        0.0
      ],
      [
        "<0x00>",
        0.0
      ],
      [
        "<0x01>",
        0.0
      ],
      [
        "<0x02>",
        0.0
      ],
      [
        "<0x03>",
        0.0
      ],
      [
        "<0x04>",
        0.0
      ],
      [
        "<0x05>",
        0.0
      ],
      [
        "<0x06>",
        0.0
      ],
      [
        "<0x07>",
        0.0
      ],
      [
        "<0x08>",
        0.0
      ],
      [
        "<0x09>",
        0.0
      ],
      [
        "<0x0A>",
        0.0
      ],
      [
        "<0x0B>",
        0.0
      ],
      [
        "<0x0C>",
        0.0
      ],
      [
        "<0x0D>",
        0.0
      ],
      [
        "<0x0E>",
        0.0
      ],
      [
        "<0x0F>",
        0.0
      ],
      [
        "<0x10>",
        0.0
      ],
      [
        "<0x11>",
        0.0
      ],
      [
        "<0x12>",
        0.0
      ],
      [
        "<0x13>",
        0.0
      ],
      [
        "<0x14>",
        0.0
      ],
      [
        "<0x15>",
        0.0
      ],
      [
        "<0x16>",
        0.0
      ],
      [
        "<0x17>",
        0.0
      ],
      [
        "<0x18>",
        0.0
      ],
      [
        "<0x19>",
        0.0
      ],
      [
        "<0x1A>",
        0.0
      ],
      [
        "<0x1B>",
        0.0
      ],
      [
        "<0x1C>",
        0.0
      ],
      [
        "<0x1D>",
        0.0
      ],
      [
        "<0x1E>",
        0.0
      ],
      [
        "<0x1F>",
        0.0
      ],
      [
        "<0x20>",
        0.0
      ],
      [
        "<0x21>",
        0.0
      ],
      [
        "<0x22>",
        0.0
      ],
      [
        "<0x23>",
        0.0
      ],
      [
        "<0x24>",
        0.0
      ],
      [
        "<0x25>",
        0.0
      ],
      [
        "<0x26>",
        0.0
      ],
      [
        "<0x27>",
        0.0
      ],
      [
        "<0x28>",
        0.0
      ],
      [
        "<0x29>",
        0.0
      ],
      [
        "<0x2A>",
        0.0
      ],
      [
        "<0x2B>",
        0.0
      ],
      [
        "<0x2C>",
        0.0
      ],
      [
        "<0x2D>",
        0.0
      ],
      [
        "<0x2E>",
        0.0
      ],
      [
        "<0x2F>",
        0.0
      ],
      [
        "<0x30>",
        0.0
      ],
      [
        "<0x31>",
        0.0
      ],
      [
        "<0x32>",
        0.0
      ],
      [
        "<0x33>",
        0.0
      ],
      [
        "<0x34>",
        0.0
      ],
      [
        "<0x35>",
        0.0
      ],
      [
        "<0x36>",
        0.0
      ],
      [
        "<0x37>",
        0.0
      ],
      [
        "<0x38>",
        0.0
      ],
      [
        "<0x39>",
        0.0
      ],
      [
        "<0x3A>",
        0.0
      ],
      [
        "<0x3B>",
        0.0
      ],
      [
        "<0x3C>",
        0.0
      ],
      [
        "<0x3D>",
        0.0
      ],
      [
        "<0x3E>",
        0.0
      ],
      [
        "<0x3F>",
        0.0
      ],
      [
        "<0x40>",
        0.0
      ],
      [
        "<0x41>",
        0.0
      ],
      [
        "<0x42>",
        0.0
      ],
      [
        "<0x43>",
        0.0
      ],
      [
        "<0x44>",
        0.0
      ],
      [
        "<0x45>",
        0.0
      ],
      [
        "<0x46>",
        0.0
      ],
      [
        "<0x47>",
        0.0
      ],
      [
        "<0x48>",
        0.0
      ],
      [
        "<0x49>",
        0.0
      ],
      [
        "<0x4A>",
        0.0
      ],
      [
        "<0x4B>",
        0.0
      ],
      [
        "<0x4C>",
        0.0
      ],
      [
        "<0x4D>",
        0.0
      ],
      [
        "<0x4E>",
        0.0
      ],
      [
        "<0x4F>",
        0.0
      ],
      [
        "<0x50>",
        0.0
      ],
      [
        "<0x51>",
        0.0
      ],
      [
        "<0x52>",
        0.0
      ],
      [
        "<0x53>",
        0.0
      ],
      [
        "<0x54>",
        0.0
      ],
      [
        "<0x55>",
        0.0
      ],
      [
        "<0x56>",
        0.0
      ],
      [
        "<0x57>",
        0.0
      ],
      [
        "<0x58>",
        0.0
      ],
      [
        "<0x59>",
        0.0
      ],
      [
        "<0x5A>",
        0.0
      ],
      [
        "<0x5B>",
        0.0
      ],
      [
        "<0x5C>",
        0.0
      ],
      [
        "<0x5D>",
        0.0
      ],
      [
        "<0x5E>",
        0.0
      ],
      [
        "<0x5F>",
        0.0
      ],
      [
        "<0x60>",
        0.0
      ],
      [
        "<0x61>",
        0.0
      ],
      [
        "<0x62>",
        0.0
      ],
      [
        "<0x63>",
        0.0
      ],
      [
        "<0x64>",
        0.0
      ],
      [
        "<0x65>",
        0.0
      ],
      [
        "<0x66>",
        0.0
      ],
      [
        "<0x67>",
        0.0
      ],
      [
        "<0x68>",
        0.0
      ],
      [
        "<0x69>",
        0.0
      ],
      [
        "<0x6A>",
        0.0
      ],
      [
        "<0x6B>",
        0.0
      ],
      [
        "<0x6C>",
        0.0
      ],
      [
        "<0x6D>",
        0.0
      ],
      [
        "<0x6E>",
        0.0
      ],
      [
        "<0x6F>",
        0.0
      ],
      [
        "<0x70>",
        0.0
      ],
      [
        "<0x71>",
        0.0
      ],
      [
        "<0x72>",
        0.0
      ],
      [
        "<0x73>",
        0.0
      ],
      [
        "<0x74>",
        0.0
      ],
      [
        "<0x75>",
        0.0
      ],
      [
        "<0x76>",
        0.0
      ],
      [
        "<0x77>",
        0.0
      ],
      [
        "<0x78>",
        0.0
      ],
      [
        "<0x79>",
        0.0
      ],
      [
        "<0x7A>",
        0.0
      ],
      [
        "<0x7B>",
        0.0
      ],
      [
        "<0x7C>",
        0.0
      ],
      [
        "<0x7D>",
        0.0
      ],
      [
        "<0x7E>",
        0.0
      ],
      [
        "<0x7F>",
        0.0
      ],
      [
        "<0x80>",
        0.0
      ],
      [
        "<0x81>",
        0.0
      ],
      [
        "<0x82>",
        0.0
      ],
      [
        "<0x83>",
        0.0
      ],
      [
        "<0x84>",
        0.0
      ],
      [
        "<0x85>",
        0.0
      ],
      [
        "<0x86>",
        0.0
      ],
      [
        "<0x87>",
        0.0
      ],
      [
        "<0x88>",
        0.0
      ],
      [
        "<0x89>",
        0.0
      ],
      [
        "<0x8A>",
        0.0
      ],
      [
        "<0x8B>",
        0.0
      ],
      [
        "<0x8C>",
        0.0
      ],
      [
        "<0x8D>",
        0.0
      ],
      [
        "<0x8E>",
        0.0
      ],
      [
        "<0x8F>",
        0.0
      ],
      [
        "<0x90>",
        0.0
      ],
      [
        "<0x91>",
        0.0
      ],
      [
        "<0x92>",
        0.0
      ],
      [
        "<0x93>",
        0.0
      ],
      [
        "<0x94>",
        0.0
      ],
      [
        "<0x95>",
        0.0
      ],
      [
        "<0x96>",
        0.0
      ],
      [
        "<0x97>",
        0.0
      ],
      [
        "<0x98>",
        0.0
      ],
      [
        "<0x99>",
        0.0
      ],
      [
        "<0x9A>",
        0.0
      ],
      [
        "<0x9B>",
        0.0
      ],
      [
        "<0x9C>",
        0.0
      ],
      [
        "<0x9D>",
        0.0
      ],
      [
        "<0x9E>",
        0.0
      ],
      [
        "<0x9F>",
        0.0
      ],
      [
        "<0xA0>",
        0.0
      ],
      [
        "<0xA1>",
        0.0
      ],
      [
        "<0xA2>",
        0.0
      ],
      [
        "<0xA3>",
        0.0
      ],
      [
        "<0xA4>",
        0.0
      ],
      [
        "<0xA5>",
        0.0
      ],
      [
        "<0xA6>",
        0.0
      ],
      [
        "<0xA7>",
        0.0
      ],
      [
        "<0xA8>",
        0.0
      ],
      [
        "<0xA9>",
        0.0
      ],
      [
        "<0xAA>",
        0.0
      ],
      [
        "<0xAB>",
        0.0
      ],
      [
        "<0xAC>",
        0.0
      ],
      [
        "<0xAD>",
        0.0
      ],
      [
        "<0xAE>",
        0.0
      ],
      [
        "<0xAF>",
        0.0
      ],
      [
        "<0xB0>",
        0.0
      ],
      [
        "<0xB1>",
        0.0
      ],
      [
        "<0xB2>",
        0.0
      ],
      [
        "<0xB3>",
        0.0
      ],
      [
        "<0xB4>",
        0.0
      ],
      [
        "<0xB5>",
        0.0
      ],
      [
        "<0xB6>",
        0.0
      ],
      [
        "<0xB7>",
        0.0
      ],
      [
        "<0xB8>",
        0.0
      ],
      [
        "<0xB9>",
        0.0
      ],
      [
        "<0xBA>",
        0.0
      ],
      [
        "<0xBB>",
        0.0
      ],
      [
        "<0xBC>",
        0.0
      ],
      [
        "<0xBD>",
        0.0
      ],
      [
        "<0xBE>",
        0.0
      ],
      [
        "<0xBF>",
        0.0
      ],
      [
        "<0xC0>",
        0.0
      ],
      [
        "<0xC1>",
        0.0
      ],
      [
        "<0xC2>",
        0.0
      ],
      [
        "<0xC3>",
        0.0
      ],
      [
        "<0xC4>",
        0.0
      ],
      [
        "<0xC5>",
        0.0
      ],
      [
        "<0xC6>",
        0.0
      ],
      [
        "<0xC7>",
        0.0
      ],
      [
        "<0xC8>",
        0.0
      ],
      [
        "<0xC9>",
        0.0
      ],
      [
        "<0xCA>",
        0.0
      ],
      [
        "<0xCB>",
        0.0
      ],
      [
        "<0xCC>",
        0.0
      ],
      [
        "<0xCD>",
        0.0
      ],
      [
        "<0xCE>",
        0.0
      ],
      [
        "<0xCF>",
        0.0
      ],
      [
        "<0xD0>",
        0.0
      ],
      [
        "<0xD1>",
        0.0
      ],
      [
        "<0xD2>",
        0.0
      ],
      [
        "<0xD3>",
        0.0
      ],
      [
        "<0xD4>",
        0.0
      ],
      [
        "<0xD5>",
        0.0
      ],
      [
        "<0xD6>",
        0.0
      ],
      [
        "<0xD7>",
        0.0
      ],
      [
        "<0xD8>",
        0.0
      ],
      [
        "<0xD9>",
        0.0
      ],
      [
        "<0xDA>",
        0.0
      ],
      [
        "<0xDB>",
        0.0
      ],
      [
        "<0xDC>",
        0.0
      ],
      [
        "<0xDD>",
        0.0
      ],
      [
        "<0xDE>",
        0.0
      ],
      [
        "<0xDF>",
        0.0
      ],
      [
        "<0xE0>",
        0.0
      ],
      [
        "<0xE1>",
        0.0
      ],
      [
        "<0xE2>",
        0.0
      ],
      [
        "<0xE3>",
        0.0
      ],
      [
        "<0xE4>",
        0.0
      ],
      [
        "<0xE5>",
        0.0
      ],
      [
        "<0xE6>",
        0.0
      ],
      [
        "<0xE7>",
        0.0
      ],
      [
        "<0xE8>",
        0.0
      ],
      [
        "<0xE9>",
        0.0
      ],
      [
        "<0xEA>",
        0.0
      ],
      [
        "<0xEB>",
        0.0
      ],
      [
        "<0xEC>",
        0.0
      ],
      [
        "<0xED>",
        0.0
      ],
      [
        "<0xEE>",
        0.0
      ],
      [
        "<0xEF>",
        0.0
      ],
      [
        "<0xF0>",
        0.0
      ],
      [
        "<0xF1>",
        0.0
      ],
      [
        "<0xF2>",
        0.0
      ],
      [
        "<0xF3>",
        0.0
      ],
      [
        "<0xF4>",
        0.0
      ],
      [
        "<0xF5>",
        0.0
      ],
      [
        "<0xF6>",
        0.0
      ],
      [
        "<0xF7>",
        0.0
      ],
      [
        "<0xF8>",
        0.0
      ],
      [
        "<0xF9>",
        0.0
      ],
      [
        "<0xFA>",
        0.0
      ],
      [
        "<0xFB>",
        0.0
      ],
      [
        "<0xFC>",
        0.0
      ],
      [
        "<0xFD>",
        0.0
      ],
      [
        "<0xFE>",
        0.0
      ],
      [
        "<0xFF>",
        0.0
      ],
      [
        "e",
        -1.4780429601669312
      ],
      [
        "1",
        -3.7407989501953125
      ],
      [
        "0",
        -3.9308619499206543
      ],
      [
        "2",
        -4.005707740783691
      ],
      [
        "、",
        -4.058166027069092
      ],
      [
        "(",
        -4.319811820983887
      ],
      [
        ",",
        -4.347789287567139
      ],
      [
        ")",
        -4.381139278411865
      ],
      [
        "。",
        -4.403649806976318
      ],
      [
        "9",
        -4.473547458648682
      ],
      [
        "-",
        -4.642138481140137
      ],
      [
        "the",
        -4.7353057861328125
      ],
      [
        "3",
        -4.9332356452941895
      ],
      [
        "8",
        -4.976410388946533
      ],
      [
        "の",
        -5.008760452270508
      ],
      [
        "4",
        -5.065066814422607
      ],
      [
        "5",
        -5.0798258781433105
      ],
      [
        "of",
        -5.135293006896973
      ],
      [
        "年",
        -5.137740612030029
      ],
      [
        "7",
        -5.140049934387207
      ],
      [
        "s",
        -5.148463249206543
      ],
      [
        "6",
        -5.1817851066589355
      ],
      [
        "・",
        -5.192159652709961
      ],
      [
        "\"",
        -5.210571765899658
      ],
      [
        "in",
        -5.248428821563721
      ],
      [
        "a",
        -5.374601364135742
      ],
      [
        ":",
        -5.386076927185059
      ],
      [
        "は",
        -5.397103309631348
      ],
      [
        "and",
        -5.4612016677856445
      ],
      [
        "が",
        -5.589958190917969
      ],
      [
        ".",
        -5.604950904846191
      ],
      [
        "月",
        -5.7667555809021
      ],
      [
        "to",
        -5.783881664276123
      ],
      [
        "に",
        -5.9248809814453125
      ],
      [
        "を",
        -5.929681777954102
      ],
      [
        "「",
        -6.012220859527588
      ],
      [
        "で",
        -6.059241771697998
      ],
      [
        "」",
        -6.0597124099731445
      ],
      [
        "と",
        -6.116649627685547
      ],
      [
        "is",
        -6.137121200561523
      ],
      [
        "The",
        -6.159395217895508
      ],
      [
        "on",
        -6.183215141296387
      ],
      [
        "日",
        -6.207209587097168
      ],
      [
        "/",
        -6.2158403396606445
      ],
      [
        "'",
        -6.268397331237793
      ],
      [
        "was",
        -6.319921016693115
      ],
      [
        "_",
        -6.330153465270996
      ],
      [
        "d",
        -6.480203628540039
      ],
      [
        "『",
        -6.571934700012207
      ],
      [
        "at",
        -6.612788677215576
      ],
      [
        ";",
        -6.624624729156494
      ],
      [
        "for",
        -6.625973224639893
      ],
      [
        "as",
        -6.654839992523193
      ],
      [
        "t",
        -6.709264755249023
      ],
      [
        "』",
        -6.715594291687012
      ],
      [
        "–",
        -6.757390022277832
      ],
      [
        "by",
        -6.780697345733643
      ],
      [
        "from",
        -6.794947147369385
      ],
      [
        "=",
        -6.870358467102051
      ],
      [
        "Retrieved",
        -6.878120422363281
      ],
      [
        "with",
        -6.89907693862915
      ],
      [
        "A",
        -6.900632381439209
      ],
      [
        "から",
        -6.911480903625488
      ],
      [
        ">",
        -6.921443462371826
      ],
      [
        "や",
        -6.932441711425781
      ],
      [
        "an",
        -6.963859558105469
      ],
      [
        "v",
        -7.008006572723389
      ],
      [
        "し",
        -7.101251125335693
      ],
      [
        "した",
        -7.112161636352539
      ],
      [
        "r",
        -7.1164164543151855
      ],
      [
        "<",
        -7.134510517120361
      ],
      [
        "である",
        -7.140368938446045
      ],
      [
        "S",
        -7.145508766174316
      ],
      [
        "第",
        -7.1729655265808105
      ],
      [
        "も",
        -7.2040605545043945
      ],
      [
        "{",
        -7.296804904937744
      ],
      [
        "として",
        -7.304049968719482
      ],
      [
        "する",
        -7.3447041511535645
      ],
      [
        "p",
        -7.349476337432861
      ],
      [
        "では",
        -7.3732075691223145
      ],
      [
        "}",
        -7.388628959655762
      ],
      [
        "i",
        -7.396602153778076
      ],
      [
        "In",
        -7.415685176849365
      ],
      [
        "m",
        -7.426095485687256
      ],
      [
        "[",
        -7.46917724609375
      ],
      [
        "n",
        -7.50930643081665
      ],
      [
        "B",
        -7.516490459442139
      ],
      [
        "his",
        -7.528019905090332
      ],
      [
        "or",
        -7.541576862335205
      ],
      [
        "),",
        -7.56151819229126
      ],
      [
        "&",
        -7.588005065917969
      ],
      [
        "=\"",
        -7.5929718017578125
      ],
      [
        "ing",
        -7.604677677154541
      ],
      [
        "He",
        -7.605335235595703
      ],
      [
        "it",
        -7.612974166870117
      ],
      [
        "D",
        -7.626204490661621
      ],
      [
        "that",
        -7.629746437072754
      ],
      [
        "he",
        -7.631014823913574
      ],
      [
        "C",
        -7.649885654449463
      ],
      [
        "*",
        -7.657864570617676
      ],
      [
        "</",
        -7.6666259765625
      ],
      [
        "th",
        -7.671247959136963
      ],
      [
        "E",
        -7.6768975257873535
      ],
      [
        "M",
        -7.688108444213867
      ],
      [
        "]",
        -7.6907806396484375
      ],
      [
        "N",
        -7.691418647766113
      ],
      [
        "た",
        -7.704300880432129
      ],
      [
        "には",
        -7.70785665512085
      ],
      [
        "R",
        -7.711859703063965
      ],
      [
        "It",
        -7.7245402336120605
      ],
      [
        "L",
        -7.735878944396973
      ],
      [
        "y",
        -7.757598876953125
      ],
      [
        "T",
        -7.770954132080078
      ],
      [
        "また",
        -7.782573223114014
      ],
      [
        "has",
        -7.804533004760742
      ],
      [
        "この",
        -7.865667343139648
      ],
      [
        "this",
        -7.882484436035156
      ],
      [
        "G",
        -7.901777744293213
      ],
      [
        "大",
        -7.907575607299805
      ],
      [
        "P",
        -7.908926010131836
      ],
      [
        "!",
        -7.915085792541504
      ],
      [
        "l",
        -7.917420864105225
      ],
      [
        "are",
        -7.918432235717773
      ],
      [
        "W",
        -7.91912841796875
      ],
      [
        "など",
        -7.922186851501465
      ],
      [
        "I",
        -7.93070650100708
      ],
      [
        "市",
        -7.952413082122803
      ],
      [
        "%",
        -7.955392360687256
      ],
      [
        "年に",
        -7.962798118591309
      ],
      [
        "which",
        -7.971349716186523
      ],
      [
        ");",
        -7.97390079498291
      ],
      [
        "H",
        -7.985220432281494
      ],
      [
        "人",
        -7.98966121673584
      ],
      [
        "°",
        -7.993068695068359
      ],
      [
        "という",
        -8.000175476074219
      ],
      [
        "were",
        -8.004984855651855
      ],
      [
        "る",
        -8.008637428283691
      ],
      [
        "K",
        -8.009431838989258
      ],
      [
        "その",
        -8.009448051452637
      ],
      [
        "Archived",
        -8.010557174682617
      ],
      [
        "F",
        -8.01101303100586
      ],
      [
        "して",
        -8.011358261108398
      ],
      [
        "New",
        -8.025307655334473
      ],
      [
        "c",
        -8.027874946594238
      ],
      [
        "している",
        -8.028564453125
      ],
      [
        "h",
        -8.032477378845215
      ],
      [
        "name",
        -8.037237167358398
      ],
      [
        "な",
        -8.037939071655273
      ],
      [
        "J",
        -8.038131713867188
      ],
      [
        "ISBN",
        -8.04037094116211
      ],
      [
        "昭和",
        -8.052396774291992
      ],
      [
        "also",
        -8.070587158203125
      ],
      [
        "if",
        -8.071150779724121
      ],
      [
        "original",
        -8.071528434753418
      ],
      [
        "された",
        -8.074796676635742
      ],
      [
        "町",
        -8.094555854797363
      ],
      [
        "て",
        -8.095813751220703
      ],
      [
        "com",
        -8.117147445678711
      ],
      [
        "o",
        -8.119457244873047
      ],
      [
        "k",
        -8.126829147338867
      ],
      [
        "first",
        -8.131925582885742
      ],
      [
        "x",
        -8.143309593200684
      ],
      [
        "National",
        -8.148860931396484
      ],
      [
        "be",
        -8.150832176208496
      ],
      [
        "ス",
        -8.153396606445312
      ],
      [
        "b",
        -8.164582252502441
      ],
      [
        "回",
        -8.175385475158691
      ],
      [
        "』(",
        -8.19789981842041
      ],
      [
        "her",
        -8.206692695617676
      ],
      [
        "class",
        -8.20768928527832
      ],
      [
        "#",
        -8.212457656860352
      ],
      [
        "による",
        -8.238567352294922
      ],
      [
        "al",
        -8.240025520324707
      ],
      [
        "」(",
        -8.249528884887695
      ],
      [
        "日本",
        -8.259563446044922
      ],
      [
        "日に",
        -8.270730972290039
      ],
      [
        "$",
        -8.27161693572998
      ],
      [
        "、「",
        -8.272467613220215
      ],
      [
        "ている",
        -8.273277282714844
      ],
      [
        "V",
        -8.273697853088379
      ],
      [
        "link",
        -8.275641441345215
      ],
      [
        "子",
        -8.276886940002441
      ],
      [
        "号",
        -8.284246444702148
      ],
      [
        "us",
        -8.286765098571777
      ],
      [
        "により",
        -8.30115032196045
      ],
      [
        "born",
        -8.30159854888916
      ],
      [
        "一",
        -8.307097434997559
      ],
      [
        "駅",
        -8.31081771850586
      ],
      [
        "May",
        -8.311423301696777
      ],
      [
        "中",
        -8.331040382385254
      ],
      [
        "This",
        -8.332708358764648
      ],
      [
        "\">",
        -8.333845138549805
      ],
      [
        "had",
        -8.335613250732422
      ],
      [
        "O",
        -8.337309837341309
      ],
      [
        "its",
        -8.340850830078125
      ],
      [
        "who",
        -8.35499382019043
      ],
      [
        "ly",
        -8.355812072753906
      ],
      [
        "//",
        -8.35869312286377
      ],
      [
        "〜",
        -8.366068840026855
      ],
      [
        "によって",
        -8.372649192810059
      ],
      [
        "new",
        -8.373636245727539
      ],
      [
        "not",
        -8.37576961517334
      ],
      [
        "return",
        -8.382843971252441
      ],
      [
        "平成",
        -8.386234283447266
      ],
      [
        "であり",
        -8.38843822479248
      ],
      [
        "March",
        -8.38935375213623
      ],
      [
        "本",
        -8.38935661315918
      ],
      [
        "となった",
        -8.391654014587402
      ],
      [
        "no",
        -8.402112007141113
      ],
      [
        "山",
        -8.403552055358887
      ],
      [
        "United",
        -8.404194831848145
      ],
      [
        "University",
        -8.406217575073242
      ],
      [
        "li",
        -8.40938663482666
      ],
      [
        "新",
        -8.410987854003906
      ],
      [
        "g",
        -8.411441802978516
      ],
      [
        "American",
        -8.413485527038574
      ],
      [
        "線",
        -8.415056228637695
      ],
      [
        "f",
        -8.415220260620117
      ],
      [
        "話",
        -8.41769027709961
      ],
      [
        "December",
        -8.418370246887207
      ],
      [
        "July",
        -8.422935485839844
      ],
      [
        "され",
        -8.42374038696289
      ],
      [
        "+",
        -8.423824310302734
      ],
      [
        "January",
        -8.42584228515625
      ],
      [
        "となる",
        -8.427505493164062
      ],
      [
        "April",
        -8.439332008361816
      ],
      [
        "km",
        -8.440889358520508
      ],
      [
        "get",
        -8.450608253479004
      ],
      [
        "August",
        -8.455610275268555
      ],
      [
        "June",
        -8.465095520019531
      ],
      [
        "村",
        -8.467514991760254
      ],
      [
        "z",
        -8.469579696655273
      ],
      [
        "英語版",
        -8.475953102111816
      ],
      [
        "two",
        -8.476484298706055
      ],
      [
        "ア",
        -8.477502822875977
      ],
      [
        "より",
        -8.48695182800293
      ],
      [
        "October",
        -8.487202644348145
      ],
      [
        "分",
        -8.488333702087402
      ],
      [
        "ズ",
        -8.491600036621094
      ],
      [
        "へ",
        -8.50362491607666
      ],
      [
        "役",
        -8.504263877868652
      ],
      [
        "September",
        -8.505412101745605
      ],
      [
        "上",
        -8.519031524658203
      ],
      [
        "On",
        -8.519754409790039
      ],
      [
        "up",
        -8.520472526550293
      ],
      [
        "November",
        -8.524054527282715
      ],
      [
        "X",
        -8.528972625732422
      ],
      [
        "World",
        -8.530162811279297
      ],
      [
        "であった",
        -8.547327041625977
      ],
      [
        "ド",
        -8.554637908935547
      ],
      [
        "but",
        -8.55904769897461
      ],
      [
        "id",
        -8.560246467590332
      ],
      [
        "U",
        -8.56240463256836
      ],
      [
        "w",
        -8.566611289978027
      ],
      [
        "り",
        -8.569624900817871
      ],
      [
        "you",
        -8.57064437866211
      ],
      [
        "may",
        -8.572107315063477
      ],
      [
        "ラ",
        -8.57484245300293
      ],
      [
        "部",
        -8.57532024383545
      ],
      [
        "川",
        -8.582890510559082
      ],
      [
        "@",
        -8.583534240722656
      ],
      [
        "される",
        -8.584193229675293
      ],
      [
        "への",
        -8.59070873260498
      ],
      [
        "元",
        -8.59360408782959
      ],
      [
        "st",
        -8.598596572875977
      ],
      [
        "February",
        -8.613286972045898
      ],
      [
        "all",
        -8.618204116821289
      ],
      [
        "東",
        -8.620596885681152
      ],
      [
        "List",
        -8.633570671081543
      ],
      [
        "郡",
        -8.640816688537598
      ],
      [
        "States",
        -8.640837669372559
      ],
      [
        "\",",
        -8.641908645629883
      ],
      [
        "名",
        -8.642945289611816
      ],
      [
        "ト",
        -8.646459579467773
      ],
      [
        "三",
        -8.646462440490723
      ],
      [
        "man",
        -8.654739379882812
      ],
      [
        "en",
        -8.664203643798828
      ],
      [
        "か",
        -8.664328575134277
      ],
      [
        "public",
        -8.672036170959473
      ],
      [
        "time",
        -8.672279357910156
      ],
      [
        "ため",
        -8.672406196594238
      ],
      [
        "their",
        -8.67726993560791
      ],
      [
        "がある",
        -8.677424430847168
      ],
      [
        "after",
        -8.678717613220215
      ],
      [
        "):",
        -8.683551788330078
      ],
      [
        "County",
        -8.687047004699707
      ],
      [
        "ク",
        -8.688864707946777
      ],
      [
        "まで",
        -8.694292068481445
      ],
      [
        "西",
        -8.69481372833252
      ],
      [
        "い",
        -8.707233428955078
      ],
      [
        "~",
        -8.713003158569336
      ],
      [
        "US",
        -8.713309288024902
      ],
      [
        "ら",
        -8.713677406311035
      ],
      [
        "カ",
        -8.714266777038574
      ],
      [
        "後",
        -8.721750259399414
      ],
      [
        "j",
        -8.730278015136719
      ],
      [
        "国",
        -8.732118606567383
      ],
      [
        "長",
        -8.732781410217285
      ],
      [
        "しかし",
        -8.735383033752441
      ],
      [
        "Z",
        -8.739423751831055
      ],
      [
        "南",
        -8.741305351257324
      ],
      [
        "島",
        -8.755448341369629
      ],
      [
        "Y",
        -8.75905704498291
      ],
      [
        "u",
        -8.759724617004395
      ],
      [
        "been",
        -8.762334823608398
      ],
      [
        "小",
        -8.762906074523926
      ],
      [
        "していた",
        -8.764257431030273
      ],
      [
        "out",
        -8.764883041381836
      ],
      [
        "have",
        -8.770949363708496
      ],
      [
        "over",
        -8.771611213684082
      ],
      [
        "′",
        -8.772652626037598
      ],
      [
        "St",
        -8.781537055969238
      ],
      [
        "ナ",
        -8.784708023071289
      ],
      [
        "お",
        -8.785079956054688
      ],
      [
        "John",
        -8.78623104095459
      ],
      [
        "東京",
        -8.787538528442383
      ],
      [
        "mi",
        -8.800026893615723
      ],
      [
        "type",
        -8.806291580200195
      ],
      [
        "だった",
        -8.809796333312988
      ],
      [
        "などの",
        -8.812923431396484
      ],
      [
        "道",
        -8.81757926940918
      ],
      [
        "位",
        -8.819466590881348
      ],
      [
        "高",
        -8.819592475891113
      ],
      [
        "同",
        -8.821393966674805
      ],
      [
        "la",
        -8.821983337402344
      ],
      [
        "水",
        -8.823103904724121
      ],
      [
        "田",
        -8.824520111083984
      ],
      [
        "set",
        -8.825231552124023
      ],
      [
        "コ",
        -8.832058906555176
      ],
      [
        "にも",
        -8.832395553588867
      ],
      [
        "されている",
        -8.835723876953125
      ],
      [
        "->",
        -8.844481468200684
      ],
      [
        "北",
        -8.844677925109863
      ],
      [
        "美",
        -8.847634315490723
      ],
      [
        "マ",
        -8.853981971740723
      ],
      [
        "および",
        -8.85627555847168
      ],
      [
        "ノ",
        -8.8576078414917
      ],
      [
        "リ",
        -8.862030982971191
      ],
      [
        "前",
        -8.865056991577148
      ],
      [
        "その後",
        -8.865865707397461
      ],
      [
        "者",
        -8.868895530700684
      ],
      [
        "月に",
        -8.870621681213379
      ],
      [
        "part",
        -8.871285438537598
      ],
      [
        "家",
        -8.87279224395752
      ],
      [
        "other",
        -8.872905731201172
      ],
      [
        "played",
        -8.875469207763672
      ],
      [
        "ていた",
        -8.875860214233398
      ],
      [
        "において",
        -8.884613990783691
      ],
      [
        "時",
        -8.885834693908691
      ],
      [
        "un",
        -8.888640403747559
      ],
      [
        "ザ",
        -8.889907836914062
      ],
      [
        "No",
        -8.893357276916504
      ],
      [
        "下",
        -8.894255638122559
      ],
      [
        "声",
        -8.898300170898438
      ],
      [
        "line",
        -8.902789115905762
      ],
      [
        "page",
        -8.906518936157227
      ],
      [
        "known",
        -8.909114837646484
      ],
      [
        "生",
        -8.909895896911621
      ],
      [
        "under",
        -8.9141263961792
      ],
      [
        "can",
        -8.914498329162598
      ],
      [
        "?",
        -8.915321350097656
      ],
      [
        "法",
        -8.916524887084961
      ],
      [
        "\\",
        -8.917893409729004
      ],
      [
        "years",
        -8.918262481689453
      ],
      [
        "明治",
        -8.919272422790527
      ],
      [
        "title",
        -8.919590950012207
      ],
      [
        "作曲",
        -8.919593811035156
      ],
      [
        "::",
        -8.919740676879883
      ],
      [
        "型",
        -8.92479133605957
      ],
      [
        "き",
        -8.93014144897461
      ],
      [
        "タ",
        -8.930693626403809
      ],
      [
        "|",
        -8.931835174560547
      ],
      [
        "年の",
        -8.932005882263184
      ],
      [
        "大学",
        -8.93577766418457
      ],
      [
        "team",
        -8.938122749328613
      ],
      [
        "にて",
        -8.939135551452637
      ],
      [
        "where",
        -8.941946029663086
      ],
      [
        "York",
        -8.943164825439453
      ],
      [
        "でも",
        -8.94622802734375
      ],
      [
        "ic",
        -8.950479507446289
      ],
      [
        "ダ",
        -8.950559616088867
      ],
      [
        "State",
        -8.952953338623047
      ],
      [
        "ル",
        -8.953180313110352
      ],
      [
        "野",
        -8.955428123474121
      ],
      [
        "School",
        -8.961002349853516
      ],
      [
        "との",
        -8.961260795593262
      ],
      [
        "family",
        -8.962565422058105
      ],
      [
        "village",
        -8.964868545532227
      ],
      [
        "神",
        -8.96586799621582
      ],
      [
        "的な",
        -8.967430114746094
      ],
      [
        "season",
        -8.969765663146973
      ],
      [
        "内",
        -8.970514297485352
      ],
      [
        "マン",
        -8.97064208984375
      ],
      [
        "光",
        -8.972917556762695
      ],
      [
        "when",
        -8.974349021911621
      ],
      [
        "led",
        -8.97669792175293
      ],
      [
        "戦",
        -8.977133750915527
      ],
      [
        "PDF",
        -8.977591514587402
      ],
      [
        "シリーズ",
        -8.977595329284668
      ],
      [
        "全",
        -8.979966163635254
      ],
      [
        "album",
        -8.981760025024414
      ],
      [
        "的",
        -8.9827880859375
      ],
      [
        "about",
        -8.986492156982422
      ],
      [
        "film",
        -8.987870216369629
      ],
      [
        "org",
        -8.991959571838379
      ],
      [
        "社",
        -8.998711585998535
      ],
      [
        "デ",
        -9.000463485717773
      ],
      [
        "なお",
        -9.003168106079102
      ],
      [
        "South",
        -9.009456634521484
      ],
      [
        "性",
        -9.010788917541504
      ],
      [
        "となり",
        -9.012348175048828
      ],
      [
        "into",
        -9.014633178710938
      ],
      [
        "化",
        -9.021117210388184
      ],
      [
        "会",
        -9.021987915039062
      ],
      [
        "co",
        -9.025469779968262
      ],
      [
        "year",
        -9.02589225769043
      ],
      [
        "み",
        -9.027799606323242
      ],
      [
        "木",
        -9.031082153320312
      ],
      [
        "do",
        -9.03226089477539
      ],
      [
        "エ",
        -9.034379959106445
      ],
      [
        "→",
        -9.037428855895996
      ],
      [
        "age",
        -9.040382385253906
      ],
      [
        "二",
        -9.04322338104248
      ],
      [
        "金",
        -9.04393482208252
      ],
      [
        "only",
        -9.04516315460205
      ],
      [
        "All",
        -9.046411514282227
      ],
      [
        "放送",
        -9.050902366638184
      ],
      [
        "ch",
        -9.051923751831055
      ],
      [
        "more",
        -9.054227828979492
      ],
      [
        "end",
        -9.05553150177002
      ],
      [
        "とは",
        -9.05770492553711
      ],
      [
        "サ",
        -9.059857368469238
      ],
      [
        "日本の",
        -9.061062812805176
      ],
      [
        "地",
        -9.06282901763916
      ],
      [
        "にある",
        -9.064377784729004
      ],
      [
        "平",
        -9.066177368164062
      ],
      [
        "′′",
        -9.069046974182129
      ],
      [
        "station",
        -9.06907844543457
      ],
      [
        "」「",
        -9.069934844970703
      ],
      [
        "data",
        -9.07022762298584
      ],
      [
        "オ",
        -9.071133613586426
      ],
      [
        "She",
        -9.071581840515137
      ],
      [
        "II",
        -9.072076797485352
      ],
      [
        "son",
        -9.072412490844727
      ],
      [
        "ar",
        -9.073187828063965
      ],
      [
        "self",
        -9.07356071472168
      ],
      [
        "代",
        -9.074207305908203
      ],
      [
        "used",
        -9.074294090270996
      ],
      [
        "度",
        -9.074921607971191
      ],
      [
        "during",
        -9.077828407287598
      ],
      [
        "*/",
        -9.080309867858887
      ],
      [
        "Press",
        -9.085188865661621
      ],
      [
        "du",
        -9.089003562927246
      ],
      [
        "ム",
        -9.090075492858887
      ],
      [
        "数",
        -9.091252326965332
      ],
      [
        "での",
        -9.09223461151123
      ],
      [
        "();",
        -9.093867301940918
      ],
      [
        "旧",
        -9.096227645874023
      ],
      [
        "つ",
        -9.096577644348145
      ],
      [
        "League",
        -9.096970558166504
      ],
      [
        "く",
        -9.097166061401367
      ],
      [
        "://",
        -9.098085403442383
      ],
      [
        "レ",
        -9.100611686706543
      ],
      [
        "バ",
        -9.1044921875
      ],
      [
        "における",
        -9.107354164123535
      ],
      [
        "To",
        -9.109207153320312
      ],
      [
        "版",
        -9.109495162963867
      ],
      [
        "between",
        -9.113899230957031
      ],
      [
        "勝",
        -9.115839004516602
      ],
      [
        "正",
        -9.116825103759766
      ],
      [
        "フ",
        -9.11723804473877
      ],
      [
        "イ",
        -9.11831283569336
      ],
      [
        "three",
        -9.12137222290039
      ],
      [
        "こ",
        -9.12216854095459
      ],
      [
        "ジ",
        -9.12231731414795
      ],
      [
        "系",
        -9.122757911682129
      ],
      [
        "function",
        -9.123092651367188
      ],
      [
        "War",
        -9.123815536499023
      ],
      [
        "var",
        -9.124614715576172
      ],
      [
        "監督",
        -9.125275611877441
      ],
      [
        "located",
        -9.127106666564941
      ],
      [
        "French",
        -9.127265930175781
      ],
      [
        "ロ",
        -9.127426147460938
      ],
      [
        "後に",
        -9.129120826721191
      ],
      [
        "TV",
        -9.129196166992188
      ],
      [
        "If",
        -9.129347801208496
      ],
      [
        "related",
        -9.1322021484375
      ],
      [
        "La",
        -9.132414817810059
      ],
      [
        "City",
        -9.132744789123535
      ],
      [
        "na",
        -9.133140563964844
      ],
      [
        "pp",
        -9.134849548339844
      ],
      [
        "value",
        -9.134949684143066
      ],
      [
        "株式会社",
        -9.135137557983398
      ],
      [
        "和",
        -9.136255264282227
      ],
      [
        "城",
        -9.148454666137695
      ],
      [
        "article",
        -9.150310516357422
      ],
      [
        "巻",
        -9.150362014770508
      ],
      [
        "di",
        -9.152210235595703
      ],
      [
        "現",
        -9.15425968170166
      ],
      [
        "London",
        -9.15451431274414
      ],
      [
        "文",
        -9.156061172485352
      ],
      [
        "then",
        -9.156530380249023
      ],
      [
        "す",
        -9.156889915466309
      ],
      [
        "span",
        -9.157952308654785
      ],
      [
        "った",
        -9.162439346313477
      ],
      [
        "As",
        -9.162848472595215
      ],
      [
        "同年",
        -9.164384841918945
      ],
      [
        "映画",
        -9.164929389953613
      ],
      [
        "point",
        -9.16496467590332
      ],
      [
        "キ",
        -9.16883659362793
      ],
      [
        "のみ",
        -9.170919418334961
      ],
      [
        "作詞",
        -9.173181533813477
      ],
      [
        "species",
        -9.176312446594238
      ],
      [
        "town",
        -9.17712116241455
      ],
      [
        "population",
        -9.177236557006836
      ],
      [
        "made",
        -9.177674293518066
      ],
      [
        "約",
        -9.179152488708496
      ],
      [
        "state",
        -9.18113899230957
      ],
      [
        "等",
        -9.181662559509277
      ],
      [
        "History",
        -9.18388843536377
      ],
      [
        "well",
        -9.18426513671875
      ],
      [
        "王",
        -9.187009811401367
      ],
      [
        "行",
        -9.187015533447266
      ],
      [
        "式",
        -9.194414138793945
      ],
      [
        "年には",
        -9.194619178771973
      ],
      [
        "シ",
        -9.194868087768555
      ],
      [
        "www",
        -9.196854591369629
      ],
      [
        "list",
        -9.197530746459961
      ],
      [
        "became",
        -9.198640823364258
      ],
      [
        "手",
        -9.198987007141113
      ],
      [
        "こと",
        -9.201892852783203
      ],
      [
        "Register",
        -9.203470230102539
      ],
      [
        "won",
        -9.204808235168457
      ],
      [
        "原",
        -9.208012580871582
      ],
      [
        "later",
        -9.209025382995605
      ],
      [
        "German",
        -9.20968246459961
      ],
      [
        "area",
        -9.209860801696777
      ],
      [
        "div",
        -9.20998477935791
      ],
      [
        "per",
        -9.21828556060791
      ],
      [
        "string",
        -9.21863079071045
      ],
      [
        "int",
        -9.219993591308594
      ],
      [
        "number",
        -9.220050811767578
      ],
      [
        "形",
        -9.222067832946777
      ],
      [
        "British",
        -9.222185134887695
      ],
      [
        "String",
        -9.223033905029297
      ],
      [
        "ul",
        -9.225812911987305
      ],
      [
        "見",
        -9.227283477783203
      ],
      [
        "作",
        -9.227703094482422
      ],
      [
        "der",
        -9.228401184082031
      ],
      [
        "second",
        -9.228803634643555
      ],
      [
        "明",
        -9.229024887084961
      ],
      [
        "海",
        -9.230536460876465
      ],
      [
        "she",
        -9.232975006103516
      ],
      [
        "they",
        -9.235602378845215
      ],
      [
        "ゲーム",
        -9.236143112182617
      ],
      [
        "Q",
        -9.238372802734375
      ],
      [
        "people",
        -9.23979663848877
      ],
      [
        "石",
        -9.242013931274414
      ],
      [
        "となっている",
        -9.242223739624023
      ],
      [
        "用",
        -9.24223804473877
      ],
      [
        "code",
        -9.244969367980957
      ],
      [
        "North",
        -9.251670837402344
      ],
      [
        "change",
        -9.252018928527832
      ],
      [
        "寺",
        -9.2527437210083
      ],
      [
        "州",
        -9.253955841064453
      ],
      [
        "For",
        -9.25511360168457
      ],
      [
        "ており",
        -9.25571060180664
      ],
      [
        "CD",
        -9.258091926574707
      ],
      [
        "land",
        -9.258624076843262
      ],
      [
        "について",
        -9.259679794311523
      ],
      [
        "橋",
        -9.264904975891113
      ],
      [
        "until",
        -9.265156745910645
      ],
      [
        "世界",
        -9.266875267028809
      ],
      [
        "区",
        -9.268267631530762
      ],
      [
        "う",
        -9.269865989685059
      ],
      [
        "former",
        -9.270238876342773
      ],
      [
        "member",
        -9.270240783691406
      ],
      [
        "Type",
        -9.270495414733887
      ],
      [
        "男",
        -9.272529602050781
      ],
      [
        "天",
        -9.275096893310547
      ],
      [
        "編曲",
        -9.275720596313477
      ],
      [
        "International",
        -9.275897979736328
      ],
      [
        "website",
        -9.277288436889648
      ],
      [
        "年から",
        -9.277464866638184
      ],
      [
        "mm",
        -9.279378890991211
      ],
      [
        "source",
        -9.282642364501953
      ],
      [
        "html",
        -9.284738540649414
      ],
      [
        "ティ",
        -9.28641414642334
      ],
      [
        "花",
        -9.291229248046875
      ],
      [
        "`",
        -9.29135513305664
      ],
      [
        "West",
        -9.294571876525879
      ],
      [
        "さらに",
        -9.295021057128906
      ],
      [
        "District",
        -9.296658515930176
      ],
      [
        "ia",
        -9.298781394958496
      ],
      [
        "賞",
        -9.300971984863281
      ],
      [
        "through",
        -9.301628112792969
      ],
      [
        "だが",
        -9.301876068115234
      ],
      [
        "FC",
        -9.302271842956543
      ],
      [
        "school",
        -9.303200721740723
      ],
      [
        "もの",
        -9.308660507202148
      ],
      [
        "nd",
        -9.309908866882324
      ],
      [
        "including",
        -9.310124397277832
      ],
      [
        "ー",
        -9.310709953308105
      ],
      [
        "media",
        -9.312085151672363
      ],
      [
        "ない",
        -9.315730094909668
      ],
      [
        "released",
        -9.316055297851562
      ],
      [
        "group",
        -9.316237449645996
      ],
      [
        "ディ",
        -9.316692352294922
      ],
      [
        "most",
        -9.318582534790039
      ],
      [
        "internal",
        -9.319015502929688
      ],
      [
        "リー",
        -9.319067001342773
      ],
      [
        "店",
        -9.320515632629395
      ],
      [
        "ガ",
        -9.320947647094727
      ],
      [
        "、『",
        -9.321259498596191
      ],
      [
        "so",
        -9.321991920471191
      ],
      [
        "disambiguation",
        -9.322101593017578
      ],
      [
        "真",
        -9.322800636291504
      ],
      [
        "there",
        -9.323131561279297
      ],
      [
        "ニ",
        -9.32413387298584
      ],
      [
        "before",
        -9.324324607849121
      ],
      [
        "></",
        -9.327280044555664
      ],
      [
        "作品",
        -9.327607154846191
      ],
      [
        "An",
        -9.327857971191406
      ],
      [
        "field",
        -9.329773902893066
      ],
      [
        "バス",
        -9.330700874328613
      ],
      [
        "歌",
        -9.33377456665039
      ],
      [
        "ネ",
        -9.336670875549316
      ],
      [
        "ツ",
        -9.33777904510498
      ],
      [
        "import",
        -9.338680267333984
      ],
      [
        "same",
        -9.339015007019043
      ],
      [
        "アルバム",
        -9.339064598083496
      ],
      [
        "屋",
        -9.340741157531738
      ],
      [
        "English",
        -9.342517852783203
      ],
      [
        "英",
        -9.343600273132324
      ],
      [
        "After",
        -9.346001625061035
      ],
      [
        "チ",
        -9.349230766296387
      ],
      [
        "学",
        -9.352034568786621
      ],
      [
        "ミ",
        -9.352158546447754
      ],
      [
        "谷",
        -9.35635757446289
      ],
      [
        "人の",
        -9.358256340026855
      ],
      [
        "Commons",
        -9.360028266906738
      ],
      [
        "間",
        -9.360200881958008
      ],
      [
        "doi",
        -9.363240242004395
      ],
      [
        "final",
        -9.363565444946289
      ],
      [
        "ers",
        -9.366886138916016
      ],
      [
        "万",
        -9.367061614990234
      ],
      [
        "His",
        -9.368359565734863
      ],
      [
        "世",
        -9.37048625946045
      ],
      [
        "音楽",
        -9.371305465698242
      ],
      [
        "des",
        -9.371445655822754
      ],
      [
        "及び",
        -9.37148666381836
      ],
      [
        "Park",
        -9.373308181762695
      ],
      [
        "”",
        -9.377891540527344
      ],
      [
        "白",
        -9.379093170166016
      ],
      [
        "シュ",
        -9.379525184631348
      ],
      [
        "だ",
        -9.381006240844727
      ],
      [
        "グ",
        -9.382365226745605
      ],
      [
        "died",
        -9.383329391479492
      ],
      [
        "力",
        -9.383605003356934
      ],
      [
        "Official",
        -9.384209632873535
      ],
      [
        "軍",
        -9.385416984558105
      ],
      [
        "番",
        -9.386077880859375
      ],
      [
        "><",
        -9.388684272766113
      ],
      [
        "車",
        -9.39224624633789
      ],
      [
        "NHK",
        -9.392303466796875
      ],
      [
        "各",
        -9.394391059875488
      ],
      [
        "県",
        -9.394501686096191
      ],
      [
        "って",
        -9.394949913024902
      ],
      [
        "機",
        -9.395768165588379
      ],
      [
        "語",
        -9.395779609680176
      ],
      [
        "da",
        -9.397567749023438
      ],
      [
        "があり",
        -9.398712158203125
      ],
      [
        "System",
        -9.399128913879395
      ],
      [
        "series",
        -9.400413513183594
      ],
      [
        "At",
        -9.401008605957031
      ],
      [
        "点",
        -9.402118682861328
      ],
      [
        "になる",
        -9.402764320373535
      ],
      [
        "期",
        -9.402904510498047
      ],
      [
        "ni",
        -9.403456687927246
      ],
      [
        "Name",
        -9.404007911682129
      ],
      [
        "さ",
        -9.404009819030762
      ],
      [
        "side",
        -9.4049654006958
      ],
      [
        "パ",
        -9.406452178955078
      ],
      [
        "Al",
        -9.407224655151367
      ],
      [
        "からの",
        -9.408095359802246
      ],
      [
        "void",
        -9.408309936523438
      ],
      [
        "愛",
        -9.409197807312012
      ],
      [
        "district",
        -9.409834861755371
      ],
      [
        "時間",
        -9.410038948059082
      ],
      [
        "him",
        -9.413722038269043
      ],
      [
        "チーム",
        -9.416383743286133
      ],
      [
        "football",
        -9.416825294494629
      ],
      [
        "',",
        -9.417080879211426
      ],
      [
        "—",
        -9.417964935302734
      ],
      [
        "served",
        -9.418014526367188
      ],
      [
        "ry",
        -9.418792724609375
      ],
      [
        "than",
        -9.420242309570312
      ],
      [
        "と共に",
        -9.420981407165527
      ],
      [
        "イン",
        -9.42268180847168
      ],
      [
        "セ",
        -9.422840118408203
      ],
      [
        "〈",
        -9.424446105957031
      ],
      [
        "使い方",
        -9.424468994140625
      ],
      [
        "House",
        -9.425043106079102
      ],
      [
        "外",
        -9.425161361694336
      ],
      [
        "所",
        -9.425665855407715
      ],
      [
        "女",
        -9.426825523376465
      ],
      [
        "史",
        -9.42885684967041
      ],
      [
        "go",
        -9.429377555847168
      ],
      [
        "ビ",
        -9.429758071899414
      ],
      [
        "“",
        -9.430285453796387
      ],
      [
        "義",
        -9.432929039001465
      ],
      [
        "立",
        -9.436012268066406
      ],
      [
        "国際",
        -9.437267303466797
      ],
      [
        "http",
        -9.438158988952637
      ],
      [
        "ブ",
        -9.439480781555176
      ],
      [
        "局",
        -9.439678192138672
      ],
      [
        "無",
        -9.443103790283203
      ],
      [
        "メ",
        -9.443190574645996
      ],
      [
        "some",
        -9.44571590423584
      ],
      [
        "city",
        -9.449281692504883
      ],
      [
        "脚注の",
        -9.449676513671875
      ],
      [
        "now",
        -9.452971458435059
      ],
      [
        "work",
        -9.45309829711914
      ],
      [
        "室",
        -9.453143119812012
      ],
      [
        "ta",
        -9.453300476074219
      ],
      [
        "lists",
        -9.453968048095703
      ],
      [
        "Wikimedia",
        -9.454018592834473
      ],
      [
        "Census",
        -9.455111503601074
      ],
      [
        "wish",
        -9.4563627243042
      ],
      [
        "できる",
        -9.456905364990234
      ],
      [
        "player",
        -9.457005500793457
      ],
      [
        "River",
        -9.457406044006348
      ],
      [
        "目",
        -9.457490921020508
      ],
      [
        "アン",
        -9.457767486572266
      ],
      [
        "物",
        -9.458179473876953
      ],
      [
        "台",
        -9.459635734558105
      ],
      [
        "風",
        -9.45996379852295
      ],
      [
        "曲",
        -9.460895538330078
      ],
      [
        "公",
        -9.462852478027344
      ],
      [
        "College",
        -9.463196754455566
      ],
      [
        "これは",
        -9.466414451599121
      ],
      [
        "鉄道",
        -9.466415405273438
      ],
      [
        "小学校",
        -9.466517448425293
      ],
      [
        "大阪",
        -9.467164993286133
      ],
      [
        "テレビ",
        -9.468021392822266
      ],
      [
        "named",
        -9.468106269836426
      ],
      [
        "学校",
        -9.469793319702148
      ],
      [
        "馬",
        -9.469949722290039
      ],
      [
        "Co",
        -9.470646858215332
      ],
      [
        "ton",
        -9.470939636230469
      ],
      [
        "センター",
        -9.471014022827148
      ],
      [
        "long",
        -9.471381187438965
      ],
      [
        "href",
        -9.472281455993652
      ],
      [
        "ハ",
        -9.472513198852539
      ],
      [
        "found",
        -9.473237037658691
      ],
      [
        "地域",
        -9.476095199584961
      ],
      [
        "現在の",
        -9.478280067443848
      ],
      [
        "men",
        -9.478320121765137
      ],
      [
        "編",
        -9.479154586791992
      ],
      [
        "song",
        -9.479399681091309
      ],
      [
        "中国",
        -9.479758262634277
      ],
      [
        "text",
        -9.480873107910156
      ],
      [
        "refer",
        -9.480879783630371
      ],
      [
        "を持つ",
        -9.481921195983887
      ],
      [
        "Cup",
        -9.483002662658691
      ],
      [
        "※",
        -9.485038757324219
      ],
      [
        "back",
        -9.4864501953125
      ],
      [
        "San",
        -9.486662864685059
      ],
      [
        "top",
        -9.487611770629883
      ],
      [
        "os",
        -9.491333961486816
      ],
      [
        "test",
        -9.491376876831055
      ],
      [
        "モ",
        -9.491902351379395
      ],
      [
        "ヤ",
        -9.492022514343262
      ],
      [
        "music",
        -9.492281913757324
      ],
      [
        "being",
        -9.492462158203125
      ],
      [
        "サン",
        -9.492918968200684
      ],
      [
        "清",
        -9.493243217468262
      ],
      [
        "になった",
        -9.4934720993042
      ],
      [
        "口",
        -9.500319480895996
      ],
      [
        "面",
        -9.50032901763916
      ],
      [
        "directly",
        -9.50150203704834
      ],
      [
        "科",
        -9.503191947937012
      ],
      [
        "ma",
        -9.505758285522461
      ],
      [
        "いた",
        -9.505805969238281
      ],
      [
        "とする",
        -9.508365631103516
      ],
      [
        "such",
        -9.509391784667969
      ],
      [
        "north",
        -9.511411666870117
      ],
      [
        "include",
        -9.511615753173828
      ],
      [
        "William",
        -9.511733055114746
      ],
      [
        "プ",
        -9.512306213378906
      ],
      [
        "×",
        -9.51242733001709
      ],
      [
        "書",
        -9.512757301330566
      ],
      [
        "出",
        -9.514397621154785
      ],
      [
        "プロ",
        -9.514830589294434
      ],
      [
        "丸",
        -9.516578674316406
      ],
      [
        "band",
        -9.516800880432129
      ],
      [
        "message",
        -9.517945289611816
      ],
      [
        "intended",
        -9.518665313720703
      ],
      [
        "four",
        -9.518943786621094
      ],
      [
        "つの",
        -9.5194091796875
      ],
      [
        "そして",
        -9.519434928894043
      ],
      [
        "Vol",
        -9.521098136901855
      ],
      [
        "安",
        -9.522226333618164
      ],
      [
        "アメリカ",
        -9.522936820983887
      ],
      [
        "size",
        -9.522956848144531
      ],
      [
        "とともに",
        -9.524831771850586
      ],
      [
        "ley",
        -9.525680541992188
      ],
      [
        "星",
        -9.52624797821045
      ],
      [
        "based",
        -9.5264310836792
      ],
      [
        "重",
        -9.527166366577148
      ],
      [
        "south",
        -9.527748107910156
      ],
      [
        "Music",
        -9.528619766235352
      ],
      [
        "const",
        -9.529376983642578
      ],
      [
        "教育",
        -9.529685020446777
      ],
      [
        "local",
        -9.530117988586426
      ],
      [
        "信",
        -9.5302734375
      ],
      [
        "江",
        -9.532045364379883
      ],
      [
        "ゴ",
        -9.532381057739258
      ],
      [
        "Times",
        -9.538124084472656
      ],
      [
        "national",
        -9.53831958770752
      ],
      [
        "able",
        -9.538385391235352
      ],
      [
        "will",
        -9.539142608642578
      ],
      [
        "とも",
        -9.542659759521484
      ],
      [
        "久",
        -9.544153213500977
      ],
      [
        "アル",
        -9.545252799987793
      ],
      [
        "El",
        -9.547723770141602
      ],
      [
        "articles",
        -9.548338890075684
      ],
      [
        "Historic",
        -9.548580169677734
      ],
      [
        "Machine",
        -9.548836708068848
      ],
      [
        "um",
        -9.549127578735352
      ],
      [
        "place",
        -9.549503326416016
      ],
      [
        "テ",
        -9.549694061279297
      ],
      [
        "番組",
        -9.550610542297363
      ],
      [
        "歳",
        -9.552019119262695
      ],
      [
        "カー",
        -9.553921699523926
      ],
      [
        "against",
        -9.557004928588867
      ],
      [
        "following",
        -9.557319641113281
      ],
      [
        "体",
        -9.5590181350708
      ],
      [
        "ケ",
        -9.559709548950195
      ],
      [
        "club",
        -9.560982704162598
      ],
      [
        "Data",
        -9.561686515808105
      ],
      [
        "事業",
        -9.561781883239746
      ],
      [
        "活動",
        -9.562875747680664
      ],
      [
        "News",
        -9.56540298461914
      ],
      [
        "There",
        -9.566040992736816
      ],
      [
        "両",
        -9.566703796386719
      ],
      [
        "left",
        -9.567523956298828
      ],
      [
        "または",
        -9.568292617797852
      ],
      [
        "Man",
        -9.57088565826416
      ],
      [
        "当時",
        -9.570971488952637
      ],
      [
        "Service",
        -9.5726318359375
      ],
      [
        "Journal",
        -9.574896812438965
      ],
      [
        "io",
        -9.576464653015137
      ],
      [
        "演",
        -9.580093383789062
      ],
      [
        "Football",
        -9.580731391906738
      ],
      [
        "many",
        -9.58182430267334
      ],
      [
        "single",
        -9.583185195922852
      ],
      [
        "ン",
        -9.583603858947754
      ],
      [
        "’",
        -9.58551025390625
      ],
      [
        "英語",
        -9.586434364318848
      ],
      [
        "しており",
        -9.5894136428833
      ],
      [
        "called",
        -9.58974552154541
      ],
      [
        "last",
        -9.591084480285645
      ],
      [
        "David",
        -9.592244148254395
      ],
      [
        "中学校",
        -9.593107223510742
      ],
      [
        "built",
        -9.595473289489746
      ],
      [
        "次",
        -9.595771789550781
      ],
      [
        "リーグ",
        -9.59637451171875
      ],
      [
        "研究",
        -9.596569061279297
      ],
      [
        "井",
        -9.596922874450684
      ],
      [
        "通",
        -9.597228050231934
      ],
      [
        "音",
        -9.598027229309082
      ],
      [
        "version",
        -9.598065376281738
      ],
      [
        "off",
        -9.599778175354004
      ],
      [
        "non",
        -9.599905967712402
      ],
      [
        "England",
        -9.600394248962402
      ],
      [
        "バー",
        -9.601378440856934
      ],
      [
        "any",
        -9.601734161376953
      ],
      [
        "他の",
        -9.602171897888184
      ],
      [
        "ある",
        -9.604108810424805
      ],
      [
        "would",
        -9.604578018188477
      ],
      [
        "needed",
        -9.60775089263916
      ],
      [
        "while",
        -9.608223915100098
      ],
      [
        "特に",
        -9.609420776367188
      ],
      [
        "館",
        -9.609762191772461
      ],
      [
        "情報",
        -9.610395431518555
      ],
      [
        "太",
        -9.610697746276855
      ],
      [
        "里",
        -9.610929489135742
      ],
      [
        "ラン",
        -9.612234115600586
      ],
      [
        "Canada",
        -9.612521171569824
      ],
      [
        "key",
        -9.6140775680542
      ],
      [
        "のため",
        -9.615981101989746
      ],
      [
        "both",
        -9.616000175476074
      ],
      [
        "に対して",
        -9.618512153625488
      ],
      [
        "吉",
        -9.619812965393066
      ],
      [
        "James",
        -9.620198249816895
      ],
      [
        "宮",
        -9.620734214782715
      ],
      [
        "事件",
        -9.621146202087402
      ],
      [
        "文化",
        -9.623109817504883
      ],
      [
        "ation",
        -9.623927116394043
      ],
      [
        "雄",
        -9.627007484436035
      ],
      [
        "Australian",
        -9.627847671508789
      ],
      [
        "/**",
        -9.630009651184082
      ],
      [
        "null",
        -9.63062572479248
      ],
      [
        "head",
        -9.631543159484863
      ],
      [
        "held",
        -9.632203102111816
      ],
      [
        "トン",
        -9.63224983215332
      ],
      [
        "ro",
        -9.6331148147583
      ],
      [
        "種",
        -9.636177062988281
      ],
      [
        "JR",
        -9.637414932250977
      ],
      [
        "女子",
        -9.641271591186523
      ],
      [
        "since",
        -9.644335746765137
      ],
      [
        "true",
        -9.645895004272461
      ],
      [
        "ra",
        -9.646793365478516
      ],
      [
        "From",
        -9.647197723388672
      ],
      [
        "ラー",
        -9.647804260253906
      ],
      [
        "船",
        -9.64855670928955
      ],
      [
        "女性",
        -9.650672912597656
      ],
      [
        "シングル",
        -9.652389526367188
      ],
      [
        "site",
        -9.654008865356445
      ],
      [
        "他",
        -9.655238151550293
      ],
      [
        "game",
        -9.655403137207031
      ],
      [
        "門",
        -9.655523300170898
      ],
      [
        "High",
        -9.65556812286377
      ],
      [
        "ka",
        -9.655574798583984
      ],
      [
        "ウ",
        -9.656208992004395
      ],
      [
        "フランス",
        -9.656710624694824
      ],
      [
        "home",
        -9.659285545349121
      ],
      [
        "Id",
        -9.659735679626465
      ],
      [
        "対",
        -9.659798622131348
      ],
      [
        "成",
        -9.660995483398438
      ],
      [
        "ist",
        -9.661018371582031
      ],
      [
        "east",
        -9.664851188659668
      ],
      [
        "松",
        -9.665387153625488
      ],
      [
        "TBS",
        -9.66608715057373
      ],
      [
        "システム",
        -9.666139602661133
      ],
      [
        "スター",
        -9.667966842651367
      ],
      [
        "治",
        -9.668302536010742
      ],
      [
        "ただし",
        -9.669490814208984
      ],
      [
        "==",
        -9.66992473602295
      ],
      [
        "グループ",
        -9.670382499694824
      ],
      [
        "優勝",
        -9.670708656311035
      ],
      [
        "Association",
        -9.671077728271484
      ],
      [
        "Wayback",
        -9.671609878540039
      ],
      [
        "場",
        -9.672691345214844
      ],
      [
        "tr",
        -9.672738075256348
      ],
      [
        "west",
        -9.673890113830566
      ],
      [
        "ri",
        -9.67481803894043
      ],
      [
        "流",
        -9.675288200378418
      ],
      [
        "初",
        -9.677627563476562
      ],
      [
        "form",
        -9.678115844726562
      ],
      [
        "武",
        -9.678901672363281
      ],
      [
        "地区",
        -9.67956829071045
      ],
      [
        "them",
        -9.68062686920166
      ],
      [
        "Red",
        -9.68077278137207
      ],
      [
        "朝",
        -9.683795928955078
      ],
      [
        "private",
        -9.684764862060547
      ],
      [
        "古",
        -9.684985160827637
      ],
      [
        "Central",
        -9.685494422912598
      ],
      [
        "ca",
        -9.68613338470459
      ],
      [
        "several",
        -9.686312675476074
      ],
      [
        "cm",
        -9.68676471710205
      ],
      [
        "ま",
        -9.690375328063965
      ],
      [
        "ボ",
        -9.69143295288086
      ],
      [
        "シー",
        -9.691768646240234
      ],
      [
        "日の",
        -9.692109107971191
      ],
      [
        "ur",
        -9.6929292678833
      ],
      [
        "career",
        -9.693486213684082
      ],
      [
        "India",
        -9.693869590759277
      ],
      [
        "心",
        -9.694219589233398
      ],
      [
        "八",
        -9.694658279418945
      ],
      [
        "すると",
        -9.697092056274414
      ],
      [
        "春",
        -9.697267532348633
      ],
      [
        "級",
        -9.699432373046875
      ],
      [
        "大会",
        -9.700252532958984
      ],
      [
        "You",
        -9.701167106628418
      ],
      [
        "published",
        -9.701472282409668
      ],
      [
        "開発",
        -9.7017822265625
      ],
      [
        "('",
        -9.70207405090332
      ],
      [
        "に対する",
        -9.702330589294434
      ],
      [
        "を行う",
        -9.703323364257812
      ],
      [
        "有",
        -9.70423412322998
      ],
      [
        "太郎",
        -9.706327438354492
      ],
      [
        "に関する",
        -9.707531929016113
      ],
      [
        "company",
        -9.708255767822266
      ],
      [
        "Information",
        -9.70918083190918
      ],
      [
        "さん",
        -9.709486961364746
      ],
      [
        "main",
        -9.710572242736816
      ],
      [
        "問題",
        -9.710803031921387
      ],
      [
        "=>",
        -9.711258888244629
      ],
      [
        "シーズン",
        -9.712528228759766
      ],
      [
        "ant",
        -9.714384078979492
      ],
      [
        "夫",
        -9.714518547058105
      ],
      [
        "方",
        -9.71558952331543
      ],
      [
        "む",
        -9.715715408325195
      ],
      [
        "They",
        -9.717541694641113
      ],
      [
        "file",
        -9.72104549407959
      ],
      [
        "small",
        -9.721075057983398
      ],
      [
        "別",
        -9.72130012512207
      ],
      [
        "Paul",
        -9.721963882446289
      ],
      [
        "色",
        -9.72203254699707
      ],
      [
        "事",
        -9.722977638244629
      ],
      [
        "円",
        -9.724361419677734
      ],
      [
        "選手",
        -9.725268363952637
      ],
      [
        "については",
        -9.725628852844238
      ],
      [
        "...",
        -9.726666450500488
      ],
      [
        "院",
        -9.727357864379883
      ],
      [
        "FM",
        -9.728291511535645
      ],
      [
        "George",
        -9.72835922241211
      ],
      [
        "出演",
        -9.728816986083984
      ],
      [
        "param",
        -9.731897354125977
      ],
      [
        "house",
        -9.732809066772461
      ],
      [
        "Society",
        -9.733243942260742
      ],
      [
        "My",
        -9.7337007522583
      ],
      [
        "citation",
        -9.73513126373291
      ],
      [
        "之",
        -9.736737251281738
      ],
      [
        "result",
        -9.736823081970215
      ],
      [
        "頭",
        -9.736875534057617
      ],
      [
        "着",
        -9.737883567810059
      ],
      [
        "ft",
        -9.738046646118164
      ],
      [
        "false",
        -9.73851203918457
      ],
      [
        "Institute",
        -9.738787651062012
      ],
      [
        "am",
        -9.738966941833496
      ],
      [
        "ワ",
        -9.739104270935059
      ],
      [
        "il",
        -9.74040699005127
      ],
      [
        "企画",
        -9.740655899047852
      ],
      [
        "と呼ばれる",
        -9.740760803222656
      ],
      [
        "early",
        -9.740955352783203
      ],
      [
        "ず",
        -9.74187183380127
      ],
      [
        "ha",
        -9.742121696472168
      ],
      [
        "General",
        -9.742569923400879
      ],
      [
        "day",
        -9.742570877075195
      ],
      [
        "Japan",
        -9.742572784423828
      ],
      [
        "Australia",
        -9.742707252502441
      ],
      [
        "多くの",
        -9.74271011352539
      ],
      [
        "Get",
        -9.742728233337402
      ],
      [
        "ながら",
        -9.745457649230957
      ],
      [
        "France",
        -9.746801376342773
      ],
      [
        "THE",
        -9.746869087219238
      ],
      [
        "East",
        -9.748193740844727
      ],
      [
        "組",
        -9.74820327758789
      ],
      [
        "q",
        -9.74841022491455
      ],
      [
        "century",
        -9.748418807983398
      ],
      [
        "book",
        -9.748798370361328
      ],
      [
        "each",
        -9.748814582824707
      ],
      [
        "building",
        -9.749995231628418
      ],
      [
        "Office",
        -9.75036334991455
      ],
      [
        "ほか",
        -9.750417709350586
      ],
      [
        "Is",
        -9.751453399658203
      ],
      [
        "気",
        -9.75182056427002
      ],
      [
        "Japanese",
        -9.757332801818848
      ],
      [
        "Robert",
        -9.758907318115234
      ],
      [
        "ラジオ",
        -9.75971508026123
      ],
      [
        "コン",
        -9.761637687683105
      ],
      [
        "Group",
        -9.761978149414062
      ],
      [
        "high",
        -9.76346492767334
      ],
      [
        "林",
        -9.763694763183594
      ],
      [
        "論",
        -9.766830444335938
      ],
      [
        "ian",
        -9.767361640930176
      ],
      [
        "中央",
        -9.767685890197754
      ],
      [
        "よ",
        -9.76790714263916
      ],
      [
        "service",
        -9.769189834594727
      ],
      [
        "市立",
        -9.769856452941895
      ],
      [
        "代表",
        -9.770832061767578
      ],
      [
        "via",
        -9.770894050598145
      ],
      [
        "五",
        -9.7724609375
      ],
      [
        "car",
        -9.772615432739258
      ],
      [
        "リン",
        -9.773222923278809
      ],
      [
        "sh",
        -9.773786544799805
      ],
      [
        "Department",
        -9.774258613586426
      ],
      [
        "Church",
        -9.77434253692627
      ],
      [
        "後の",
        -9.776556968688965
      ],
      [
        "技術",
        -9.77831745147705
      ],
      [
        "氏",
        -9.77944278717041
      ],
      [
        "ために",
        -9.779613494873047
      ],
      [
        "ion",
        -9.782282829284668
      ],
      [
        "直",
        -9.78317642211914
      ],
      [
        "森",
        -9.783249855041504
      ],
      [
        ")」",
        -9.783957481384277
      ],
      [
        "First",
        -9.784912109375
      ],
      [
        "ポ",
        -9.786020278930664
      ],
      [
        "play",
        -9.786314010620117
      ],
      [
        "攻撃",
        -9.787301063537598
      ],
      [
        "不",
        -9.787535667419434
      ],
      [
        "それ",
        -9.788060188293457
      ],
      [
        "ドラマ",
        -9.789588928222656
      ],
      [
        "尾",
        -9.79076099395752
      ],
      [
        "施設",
        -9.792342185974121
      ],
      [
        "ドイツ",
        -9.792637825012207
      ],
      [
        "ター",
        -9.793105125427246
      ],
      [
        "within",
        -9.794099807739258
      ],
      [
        "マー",
        -9.79488468170166
      ],
      [
        "日から",
        -9.7950439453125
      ],
      [
        "士",
        -9.795241355895996
      ],
      [
        "td",
        -9.798945426940918
      ],
      [
        "__",
        -9.799715042114258
      ],
      [
        "制作",
        -9.802155494689941
      ],
      [
        "いる",
        -9.803275108337402
      ],
      [
        "California",
        -9.803284645080566
      ],
      [
        "志",
        -9.803557395935059
      ],
      [
        "章",
        -9.804534912109375
      ],
      [
        "old",
        -9.805842399597168
      ],
      [
        "With",
        -9.806588172912598
      ],
      [
        "war",
        -9.80712890625
      ],
      [
        "日発売",
        -9.807714462280273
      ],
      [
        "ソ",
        -9.808635711669922
      ],
      [
        "IC",
        -9.808694839477539
      ],
      [
        "ジョン",
        -9.809103965759277
      ],
      [
        "Center",
        -9.81013011932373
      ],
      [
        "エル",
        -9.810297966003418
      ],
      [
        "都市",
        -9.810680389404297
      ],
      [
        "ID",
        -9.810701370239258
      ],
      [
        "event",
        -9.810750961303711
      ],
      [
        "多",
        -9.811842918395996
      ],
      [
        "min",
        -9.812516212463379
      ],
      [
        "associated",
        -9.81315803527832
      ],
      [
        "総合",
        -9.814801216125488
      ],
      [
        "length",
        -9.815258026123047
      ],
      [
        "時に",
        -9.817949295043945
      ],
      [
        "é",
        -9.81856632232666
      ],
      [
        "ことで",
        -9.820566177368164
      ],
      [
        "net",
        -9.82070541381836
      ],
      [
        "Love",
        -9.820929527282715
      ],
      [
        "としては",
        -9.821365356445312
      ],
      [
        "Company",
        -9.821617126464844
      ],
      [
        "め",
        -9.821734428405762
      ],
      [
        "のために",
        -9.822471618652344
      ],
      [
        "au",
        -9.822871208190918
      ],
      [
        "年間",
        -9.823226928710938
      ],
      [
        "北海道",
        -9.823282241821289
      ],
      [
        "高等学校",
        -9.8262939453125
      ],
      [
        "ヒ",
        -9.826382637023926
      ],
      [
        "pre",
        -9.827194213867188
      ],
      [
        "実",
        -9.827200889587402
      ],
      [
        "\"/>",
        -9.827239036560059
      ],
      [
        "Her",
        -9.828166961669922
      ],
      [
        "されていた",
        -9.829524993896484
      ],
      [
        "千",
        -9.830606460571289
      ],
      [
        "じ",
        -9.830615997314453
      ],
      [
        "static",
        -9.83104419708252
      ],
      [
        "Royal",
        -9.831991195678711
      ],
      [
        "地方",
        -9.832327842712402
      ],
      [
        "試合",
        -9.833150863647461
      ],
      [
        "政",
        -9.833955764770508
      ],
      [
        "協会",
        -9.834577560424805
      ],
      [
        "ner",
        -9.834912300109863
      ],
      [
        "add",
        -9.836804389953613
      ],
      [
        "way",
        -9.837437629699707
      ],
      [
        "right",
        -9.839216232299805
      ],
      [
        "record",
        -9.839512825012207
      ],
      [
        "権",
        -9.840848922729492
      ],
      [
        "Media",
        -9.840953826904297
      ],
      [
        "サービス",
        -9.841509819030762
      ],
      [
        "Club",
        -9.843073844909668
      ],
      [
        "ように",
        -9.84345531463623
      ],
      [
        "座",
        -9.843603134155273
      ],
      [
        "location",
        -9.844600677490234
      ],
      [
        "ity",
        -9.845427513122559
      ],
      [
        "show",
        -9.845463752746582
      ],
      [
        "Go",
        -9.845527648925781
      ],
      [
        "担当",
        -9.84567928314209
      ],
      [
        "ライブ",
        -9.847058296203613
      ],
      [
        "堂",
        -9.847291946411133
      ],
      [
        "大正",
        -9.84744644165039
      ],
      [
        "ベル",
        -9.848381042480469
      ],
      [
        "津",
        -9.84852123260498
      ],
      [
        "国道",
        -9.849373817443848
      ],
      [
        "sub",
        -9.849456787109375
      ],
      [
        "system",
        -9.850184440612793
      ],
      [
        "ad",
        -9.850536346435547
      ],
      [
        "ti",
        -9.851280212402344
      ],
      [
        "ベ",
        -9.854022979736328
      ],
      [
        "計画",
        -9.85404109954834
      ],
      [
        "高校",
        -9.85416030883789
      ],
      [
        "条",
        -9.855372428894043
      ],
      [
        "Thomas",
        -9.857186317443848
      ],
      [
        "married",
        -9.857681274414062
      ],
      [
        "world",
        -9.857866287231445
      ],
      [
        "良",
        -9.858611106872559
      ],
      [
        "沢",
        -9.85927677154541
      ],
      [
        "クラブ",
        -9.859673500061035
      ],
      [
        "water",
        -9.860978126525879
      ],
      [
        "ことを",
        -9.862744331359863
      ],
      [
        "物語",
        -9.863733291625977
      ],
      [
        "ki",
        -9.864601135253906
      ],
      [
        "られた",
        -9.865060806274414
      ],
      [
        "im",
        -9.865073204040527
      ],
      [
        "社会",
        -9.865480422973633
      ],
      [
        "京都",
        -9.865673065185547
      ],
      [
        "月号",
        -9.865925788879395
      ],
      [
        "Hall",
        -9.865966796875
      ],
      [
        "広",
        -9.866275787353516
      ],
      [
        "赤",
        -9.86658763885498
      ],
      [
        "ver",
        -9.866731643676758
      ],
      [
        "history",
        -9.868570327758789
      ],
      [
        "兵",
        -9.868637084960938
      ],
      [
        "Canadian",
        -9.869253158569336
      ],
      [
        "air",
        -9.869601249694824
      ],
      [
        "カード",
        -9.870227813720703
      ],
      [
        "rd",
        -9.870361328125
      ],
      [
        "ten",
        -9.87256908416748
      ],
      [
        "的に",
        -9.872742652893066
      ],
      [
        "base",
        -9.874052047729492
      ],
      [
        "黒",
        -9.874074935913086
      ],
      [
        "戸",
        -9.87441349029541
      ],
      [
        "bar",
        -9.874566078186035
      ],
      [
        "den",
        -9.874618530273438
      ],
      [
        "Ar",
        -9.874836921691895
      ],
      [
        "させる",
        -9.876273155212402
      ],
      [
        "ものの",
        -9.878443717956543
      ],
      [
        "near",
        -9.87846565246582
      ],
      [
        "election",
        -9.879042625427246
      ],
      [
        "Museum",
        -9.880267143249512
      ],
      [
        "Council",
        -9.880380630493164
      ],
      [
        "les",
        -9.880922317504883
      ],
      [
        "があった",
        -9.88094425201416
      ],
      [
        "ソン",
        -9.8831787109375
      ],
      [
        "Spanish",
        -9.883186340332031
      ],
      [
        "からは",
        -9.88353443145752
      ],
      [
        "ギ",
        -9.883641242980957
      ],
      [
        "聖",
        -9.883647918701172
      ],
      [
        "年度",
        -9.884576797485352
      ],
      [
        "秒",
        -9.88487434387207
      ],
      [
        "のような",
        -9.885515213012695
      ],
      [
        "style",
        -9.885805130004883
      ],
      [
        "Un",
        -9.88696575164795
      ],
      [
        "夏",
        -9.887748718261719
      ],
      [
        "translation",
        -9.888619422912598
      ],
      [
        "四",
        -9.888639450073242
      ],
      [
        "Michael",
        -9.889357566833496
      ],
      [
        "America",
        -9.889793395996094
      ],
      [
        "御",
        -9.890779495239258
      ],
      [
        "table",
        -9.890874862670898
      ],
      [
        "run",
        -9.891486167907715
      ],
      [
        "主",
        -9.892087936401367
      ],
      [
        "岩",
        -9.892634391784668
      ],
      [
        "took",
        -9.894039154052734
      ],
      [
        "え",
        -9.896720886230469
      ],
      [
        "!!",
        -9.89712905883789
      ],
      [
        "Names",
        -9.897281646728516
      ],
      [
        "si",
        -9.898106575012207
      ],
      [
        "デザイン",
        -9.898427963256836
      ],
      [
        "モデル",
        -9.898859024047852
      ],
      [
        "当時の",
        -9.898965835571289
      ],
      [
        "professional",
        -9.90406322479248
      ],
      [
        "アニメ",
        -9.904487609863281
      ],
      [
        "出版",
        -9.905831336975098
      ],
      [
        "win",
        -9.905841827392578
      ],
      [
        "my",
        -9.90679931640625
      ],
      [
        "Records",
        -9.907341003417969
      ],
      [
        "幸",
        -9.909543991088867
      ],
      [
        "By",
        -9.9110746383667
      ],
      [
        "隊",
        -9.913880348205566
      ],
      [
        "round",
        -9.91408920288086
      ],
      [
        "校",
        -9.914509773254395
      ],
      [
        "スポーツ",
        -9.91467571258545
      ],
      [
        "Street",
        -9.915635108947754
      ],
      [
        "Statistics",
        -9.91606616973877
      ],
      [
        "波",
        -9.917157173156738
      ],
      [
        "DVD",
        -9.918343544006348
      ],
      [
        "といった",
        -9.918448448181152
      ],
      [
        "Charles",
        -9.92061996459961
      ],
      [
        "発",
        -9.92138671875
      ],
      [
        "post",
        -9.923051834106445
      ],
      [
        "公園",
        -9.92383098602295
      ],
      [
        "current",
        -9.923897743225098
      ],
      [
        "官",
        -9.924041748046875
      ],
      [
        "関係",
        -9.925005912780762
      ],
      [
        "香",
        -9.925307273864746
      ],
      [
        "Division",
        -9.925713539123535
      ],
      [
        "ホ",
        -9.926313400268555
      ],
      [
        "Art",
        -9.927247047424316
      ],
      [
        "using",
        -9.928398132324219
      ],
      [
        "art",
        -9.92890453338623
      ],
      [
        "生活",
        -9.932458877563477
      ],
      [
        "米",
        -9.933073043823242
      ],
      [
        "very",
        -9.93375301361084
      ],
      [
        "best",
        -9.93376636505127
      ],
      [
        "ビル",
        -9.934379577636719
      ],
      [
        "down",
        -9.934688568115234
      ],
      [
        "会社",
        -9.936592102050781
      ],
      [
        "夜",
        -9.936840057373047
      ],
      [
        "のは",
        -9.937463760375977
      ],
      [
        "began",
        -9.93757152557373
      ],
      [
        "弾",
        -9.93785572052002
      ],
      [
        "ジャ",
        -9.938313484191895
      ],
      [
        "UK",
        -9.938660621643066
      ],
      [
        "King",
        -9.941256523132324
      ],
      [
        "case",
        -9.942517280578613
      ],
      [
        "received",
        -9.942642211914062
      ],
      [
        "制",
        -9.942779541015625
      ],
      [
        "神社",
        -9.942907333374023
      ],
      [
        "European",
        -9.943284034729004
      ],
      [
        "Air",
        -9.943670272827148
      ],
      [
        "超",
        -9.943841934204102
      ],
      [
        "人間",
        -9.944190979003906
      ],
      [
        "ガン",
        -9.945890426635742
      ],
      [
        "CS",
        -9.945995330810547
      ],
      [
        "else",
        -9.946605682373047
      ],
      [
        "Pro",
        -9.9473295211792
      ],
      [
        "レイ",
        -9.948230743408203
      ],
      [
        "Star",
        -9.948588371276855
      ],
      [
        "組織",
        -9.950414657592773
      ],
      [
        "あ",
        -9.950581550598145
      ],
      [
        "Russian",
        -9.951762199401855
      ],
      [
        "ter",
        -9.952814102172852
      ],
      [
        "op",
        -9.95283031463623
      ],
      [
        "/*",
        -9.952890396118164
      ],
      [
        "シャ",
        -9.952901840209961
      ],
      [
        "管理",
        -9.953169822692871
      ],
      [
        "ことから",
        -9.953690528869629
      ],
      [
        "Italian",
        -9.953746795654297
      ],
      [
        "スーパー",
        -9.954124450683594
      ],
      [
        "知",
        -9.954219818115234
      ],
      [
        "ロー",
        -9.955831527709961
      ],
      [
        "ment",
        -9.95648193359375
      ],
      [
        "census",
        -9.956670761108398
      ],
      [
        "Best",
        -9.957738876342773
      ],
      [
        "ではなく",
        -9.957746505737305
      ],
      [
        "宗",
        -9.958307266235352
      ],
      [
        "life",
        -9.95842456817627
      ],
      [
        "司",
        -9.958514213562012
      ],
      [
        "genus",
        -9.95864486694336
      ],
      [
        "龍",
        -9.959555625915527
      ],
      [
        "str",
        -9.959667205810547
      ],
      [
        "Party",
        -9.96026611328125
      ],
      [
        "戦争",
        -9.96048641204834
      ],
      [
        "given",
        -9.961304664611816
      ],
      [
        "全国",
        -9.96202278137207
      ],
      [
        "along",
        -9.962292671203613
      ],
      [
        "経済",
        -9.962406158447266
      ],
      [
        "第一",
        -9.964197158813477
      ],
      [
        "lo",
        -9.964923858642578
      ],
      [
        "moved",
        -9.966277122497559
      ],
      [
        "ng",
        -9.966409683227539
      ],
      [
        "children",
        -9.968010902404785
      ],
      [
        "先",
        -9.968738555908203
      ],
      [
        "third",
        -9.970536231994629
      ],
      [
        "Film",
        -9.971529006958008
      ],
      [
        "ほど",
        -9.972843170166016
      ],
      [
        "玉",
        -9.973380088806152
      ],
      [
        "Object",
        -9.973484992980957
      ],
      [
        "BS",
        -9.973793029785156
      ],
      [
        "公演",
        -9.974597930908203
      ],
      [
        "っている",
        -9.974712371826172
      ],
      [
        "five",
        -9.97482681274414
      ],
      [
        "空",
        -9.97511100769043
      ],
      [
        "Set",
        -9.97629451751709
      ],
      [
        "ち",
        -9.976774215698242
      ],
      [
        "total",
        -9.976914405822754
      ],
      [
        "Award",
        -9.978310585021973
      ],
      [
        "ol",
        -9.97848892211914
      ],
      [
        "徳",
        -9.97873592376709
      ],
      [
        "人物",
        -9.978918075561523
      ],
      [
        "path",
        -9.981768608093262
      ],
      [
        "ko",
        -9.981884956359863
      ],
      [
        "around",
        -9.981980323791504
      ],
      [
        "七",
        -9.982622146606445
      ],
      [
        "Test",
        -9.982852935791016
      ],
      [
        "ler",
        -9.983890533447266
      ],
      [
        "kg",
        -9.984475135803223
      ],
      [
        "del",
        -9.984477996826172
      ],
      [
        "con",
        -9.985003471374512
      ],
      [
        "企業",
        -9.985204696655273
      ],
      [
        "を含む",
        -9.985451698303223
      ],
      [
        "したが",
        -9.98613166809082
      ],
      [
        "々",
        -9.987035751342773
      ],
      [
        "Top",
        -9.987788200378418
      ],
      [
        "like",
        -9.988415718078613
      ],
      [
        "彦",
        -9.988951683044434
      ],
      [
        "六",
        -9.989707946777344
      ],
      [
        "index",
        -9.989779472351074
      ],
      [
        "を経て",
        -9.990700721740723
      ],
      [
        "color",
        -9.99217700958252
      ],
      [
        "崎",
        -9.993358612060547
      ],
      [
        "Map",
        -9.993746757507324
      ],
      [
        "elected",
        -9.99379825592041
      ],
      [
        "カン",
        -9.994508743286133
      ],
      [
        "Championship",
        -9.994603157043457
      ],
      [
        "less",
        -9.994683265686035
      ],
      [
        "CM",
        -9.995296478271484
      ],
      [
        "道路",
        -9.997918128967285
      ],
      [
        "Time",
        -9.99815559387207
      ],
      [
        "https",
        -9.99816608428955
      ],
      [
        "user",
        -9.998604774475098
      ],
      [
        "ヴィ",
        -9.998747825622559
      ],
      [
        "機能",
        -10.00083065032959
      ],
      [
        "games",
        -10.001992225646973
      ],
      [
        "フジテレビ",
        -10.003401756286621
      ],
      [
        "Value",
        -10.004057884216309
      ],
      [
        "坂",
        -10.00452995300293
      ],
      [
        "丁目",
        -10.004800796508789
      ],
      [
        "中に",
        -10.005030632019043
      ],
      [
        "Of",
        -10.005114555358887
      ],
      [
        "level",
        -10.006234169006348
      ],
      [
        "position",
        -10.006400108337402
      ],
      [
        "rs",
        -10.00672721862793
      ],
      [
        "map",
        -10.00677490234375
      ],
      [
        "よりも",
        -10.008159637451172
      ],
      [
        "ペ",
        -10.008794784545898
      ],
      [
        "よう",
        -10.009638786315918
      ],
      [
        "Black",
        -10.010047912597656
      ],
      [
        "品",
        -10.011200904846191
      ],
      [
        "ファ",
        -10.011484146118164
      ],
      [
        "アイ",
        -10.011579513549805
      ],
      [
        "community",
        -10.012567520141602
      ],
      [
        "Road",
        -10.012621879577637
      ],
      [
        "Island",
        -10.01377010345459
      ],
      [
        "環境",
        -10.013876914978027
      ],
      [
        "記録",
        -10.014778137207031
      ],
      [
        "region",
        -10.014959335327148
      ],
      [
        "Republic",
        -10.015412330627441
      ],
      [
        "アー",
        -10.015605926513672
      ],
      [
        "Ma",
        -10.016185760498047
      ],
      [
        "バンド",
        -10.016195297241211
      ],
      [
        "現在は",
        -10.016365051269531
      ],
      [
        "politician",
        -10.016470909118652
      ],
      [
        "集",
        -10.01738452911377
      ],
      [
        "とした",
        -10.019294738769531
      ],
      [
        "港",
        -10.019883155822754
      ],
      [
        "記",
        -10.020140647888184
      ],
      [
        "ピ",
        -10.020581245422363
      ],
      [
        "Places",
        -10.020955085754395
      ],
      [
        "イギリス",
        -10.021178245544434
      ],
      [
        "red",
        -10.021553993225098
      ],
      [
        "///",
        -10.021637916564941
      ],
      [
        "利",
        -10.02184009552002
      ],
      [
        "don",
        -10.022273063659668
      ],
      [
        "Lake",
        -10.022302627563477
      ],
      [
        "リア",
        -10.022713661193848
      ],
      [
        "彼は",
        -10.023245811462402
      ],
      [
        "師",
        -10.023491859436035
      ],
      [
        "を受け",
        -10.023944854736328
      ],
      [
        "short",
        -10.024266242980957
      ],
      [
        "特別",
        -10.024803161621094
      ],
      [
        "information",
        -10.025206565856934
      ],
      [
        "製作",
        -10.026785850524902
      ],
      [
        "時代",
        -10.027024269104004
      ],
      [
        "ね",
        -10.028777122497559
      ],
      [
        "イベント",
        -10.029211044311523
      ],
      [
        "ナー",
        -10.029280662536621
      ],
      [
        "通り",
        -10.030538558959961
      ],
      [
        "群",
        -10.030669212341309
      ],
      [
        "工場",
        -10.030834197998047
      ],
      [
        "調査",
        -10.03102970123291
      ],
      [
        "Peter",
        -10.03115463256836
      ],
      [
        "とされる",
        -10.031566619873047
      ],
      [
        "人が",
        -10.03166675567627
      ],
      [
        "vol",
        -10.03246021270752
      ],
      [
        "death",
        -10.035086631774902
      ],
      [
        "ホール",
        -10.035316467285156
      ],
      [
        "Sports",
        -10.035691261291504
      ],
      [
        "定",
        -10.0360746383667
      ],
      [
        "bo",
        -10.036364555358887
      ],
      [
        "free",
        -10.03683090209961
      ],
      [
        "Poland",
        -10.037078857421875
      ],
      [
        "】",
        -10.037392616271973
      ],
      [
        "ニー",
        -10.037830352783203
      ],
      [
        "object",
        -10.038006782531738
      ],
      [
        "ja",
        -10.038167953491211
      ],
      [
        "【",
        -10.038616180419922
      ],
      [
        "たち",
        -10.038736343383789
      ],
      [
        "戦闘",
        -10.041962623596191
      ],
      [
        "シン",
        -10.042030334472656
      ],
      [
        "van",
        -10.042206764221191
      ],
      [
        "を行った",
        -10.042351722717285
      ],
      [
        "Or",
        -10.042391777038574
      ],
      [
        "Polish",
        -10.04267406463623
      ],
      [
        "Life",
        -10.043035507202148
      ],
      [
        "Land",
        -10.043205261230469
      ],
      [
        "Union",
        -10.043660163879395
      ],
      [
        "青",
        -10.043867111206055
      ],
      [
        "written",
        -10.044154167175293
      ],
      [
        "ty",
        -10.044710159301758
      ],
      [
        "演出",
        -10.04479694366455
      ],
      [
        "場合",
        -10.046857833862305
      ],
      [
        "脚本",
        -10.048100471496582
      ],
      [
        "members",
        -10.049018859863281
      ],
      [
        "させた",
        -10.050411224365234
      ],
      [
        "mo",
        -10.050512313842773
      ],
      [
        "訳",
        -10.051495552062988
      ],
      [
        "オブ",
        -10.052807807922363
      ],
      [
        "\");",
        -10.05356502532959
      ],
      [
        "樹",
        -10.054465293884277
      ],
      [
        "オー",
        -10.054845809936523
      ],
      [
        "wood",
        -10.05611801147461
      ],
      [
        "もある",
        -10.057138442993164
      ],
      [
        "へと",
        -10.05843448638916
      ],
      [
        "母",
        -10.059874534606934
      ],
      [
        "java",
        -10.060094833374023
      ],
      [
        "路",
        -10.060194969177246
      ],
      [
        "土",
        -10.060375213623047
      ],
      [
        "派",
        -10.060515403747559
      ],
      [
        "Grand",
        -10.060914993286133
      ],
      [
        "church",
        -10.061653137207031
      ],
      [
        "Jan",
        -10.061707496643066
      ],
      [
        "Bureau",
        -10.062169075012207
      ],
      [
        "開始",
        -10.062329292297363
      ],
      [
        "Bar",
        -10.062381744384766
      ],
      [
        "入",
        -10.062785148620605
      ],
      [
        "運動",
        -10.06353759765625
      ],
      [
        "翌",
        -10.063812255859375
      ],
      [
        "Do",
        -10.064213752746582
      ],
      [
        "err",
        -10.064796447753906
      ],
      [
        "Mar",
        -10.06580638885498
      ],
      [
        "非",
        -10.06605052947998
      ],
      [
        "next",
        -10.066061019897461
      ],
      [
        "のように",
        -10.066914558410645
      ],
      [
        "val",
        -10.067012786865234
      ],
      [
        "収録",
        -10.067159652709961
      ],
      [
        "使用",
        -10.06765365600586
      ],
      [
        "合",
        -10.068140983581543
      ],
      [
        "Ver",
        -10.068245887756348
      ],
      [
        "late",
        -10.068462371826172
      ],
      [
        "弘",
        -10.069853782653809
      ],
      [
        "根",
        -10.070562362670898
      ],
      [
        "字",
        -10.070690155029297
      ],
      [
        "ism",
        -10.070775032043457
      ],
      [
        "同じ",
        -10.07080364227295
      ],
      [
        "ゲ",
        -10.072031021118164
      ],
      [
        "保",
        -10.072257041931152
      ],
      [
        "の中で",
        -10.073270797729492
      ],
      [
        "br",
        -10.073771476745605
      ],
      [
        "start",
        -10.07400894165039
      ],
      [
        "親",
        -10.074081420898438
      ],
      [
        "def",
        -10.07424545288086
      ],
      [
        "Saint",
        -10.075262069702148
      ],
      [
        "当",
        -10.075472831726074
      ],
      [
        "founded",
        -10.075545310974121
      ],
      [
        "ns",
        -10.075849533081055
      ],
      [
        "エン",
        -10.076170921325684
      ],
      [
        "蔵",
        -10.07749080657959
      ],
      [
        "モン",
        -10.077821731567383
      ],
      [
        "mer",
        -10.078474044799805
      ],
      [
        "portal",
        -10.078819274902344
      ],
      [
        "岡",
        -10.078849792480469
      ],
      [
        "食",
        -10.079015731811523
      ],
      [
        "せ",
        -10.080121040344238
      ],
      [
        "撮影",
        -10.080967903137207
      ],
      [
        "中の",
        -10.081382751464844
      ],
      [
        "スペシャル",
        -10.081605911254883
      ],
      [
        "px",
        -10.082768440246582
      ],
      [
        "ling",
        -10.082775115966797
      ],
      [
        "official",
        -10.08293628692627
      ],
      [
        "Men",
        -10.083251953125
      ],
      [
        "敵",
        -10.083297729492188
      ],
      [
        "所属",
        -10.083771705627441
      ],
      [
        "主に",
        -10.083911895751953
      ],
      [
        "Radio",
        -10.083927154541016
      ],
      [
        "になり",
        -10.084175109863281
      ],
      [
        "彼の",
        -10.085225105285645
      ],
      [
        "Dr",
        -10.085460662841797
      ],
      [
        "included",
        -10.085460662841797
      ],
      [
        "open",
        -10.085472106933594
      ],
      [
        "れ",
        -10.087395668029785
      ],
      [
        "今",
        -10.087675094604492
      ],
      [
        "government",
        -10.088279724121094
      ],
      [
        "miles",
        -10.088401794433594
      ],
      [
        "White",
        -10.088719367980957
      ],
      [
        "カル",
        -10.089118003845215
      ],
      [
        "average",
        -10.089224815368652
      ],
      [
        "火",
        -10.089227676391602
      ],
      [
        "ship",
        -10.08924388885498
      ],
      [
        "content",
        -10.08956241607666
      ],
      [
        "ville",
        -10.089713096618652
      ],
      [
        "民",
        -10.090832710266113
      ],
      [
        "技",
        -10.091835975646973
      ],
      [
        "ことが",
        -10.091978073120117
      ],
      [
        "学園",
        -10.09212875366211
      ],
      [
        "スト",
        -10.092175483703613
      ],
      [
        "葉",
        -10.093230247497559
      ],
      [
        "len",
        -10.093294143676758
      ],
      [
        "law",
        -10.094130516052246
      ],
      [
        "create",
        -10.095022201538086
      ],
      [
        "総",
        -10.096128463745117
      ],
      [
        "ファン",
        -10.096536636352539
      ],
      [
        "忠",
        -10.09692096710205
      ],
      [
        "large",
        -10.097015380859375
      ],
      [
        "joined",
        -10.0973482131958
      ],
      [
        "に伴い",
        -10.097567558288574
      ],
      [
        "\"><",
        -10.097606658935547
      ],
      [
        "半",
        -10.098634719848633
      ],
      [
        "永",
        -10.098943710327148
      ],
      [
        "ハイ",
        -10.099324226379395
      ],
      [
        "夢",
        -10.099532127380371
      ],
      [
        "ダー",
        -10.099654197692871
      ],
      [
        "did",
        -10.100825309753418
      ],
      [
        "Class",
        -10.101109504699707
      ],
      [
        "のうち",
        -10.101142883300781
      ],
      [
        "場所",
        -10.101576805114746
      ],
      [
        "相",
        -10.102570533752441
      ],
      [
        "Olympics",
        -10.102612495422363
      ],
      [
        "error",
        -10.102665901184082
      ],
      [
        "ts",
        -10.102697372436523
      ],
      [
        "So",
        -10.102768898010254
      ],
      [
        "ば",
        -10.102959632873535
      ],
      [
        "リング",
        -10.102994918823242
      ],
      [
        "こう",
        -10.104048728942871
      ],
      [
        "一部",
        -10.10535717010498
      ],
      [
        "square",
        -10.105522155761719
      ],
      [
        "Don",
        -10.105792999267578
      ],
      [
        "($",
        -10.105823516845703
      ],
      [
        "Germany",
        -10.106816291809082
      ],
      [
        "レン",
        -10.107522964477539
      ],
      [
        "病院",
        -10.107659339904785
      ],
      [
        "Richard",
        -10.108100891113281
      ],
      [
        "match",
        -10.108421325683594
      ],
      [
        "III",
        -10.10847282409668
      ],
      [
        "達",
        -10.108567237854004
      ],
      [
        "来",
        -10.109074592590332
      ],
      [
        "日には",
        -10.10983657836914
      ],
      [
        "Car",
        -10.10988998413086
      ],
      [
        "Database",
        -10.110464096069336
      ],
      [
        "になっている",
        -10.112011909484863
      ],
      [
        "ロン",
        -10.112364768981934
      ],
      [
        "連",
        -10.112753868103027
      ],
      [
        "ご",
        -10.113064765930176
      ],
      [
        "Washington",
        -10.11380672454834
      ],
      [
        "footballer",
        -10.114584922790527
      ],
      [
        "father",
        -10.114830017089844
      ],
      [
        "以上",
        -10.11520767211914
      ],
      [
        "league",
        -10.11538314819336
      ],
      [
        "以降",
        -10.116606712341309
      ],
      [
        "鉄",
        -10.117073059082031
      ],
      [
        "Statistical",
        -10.117172241210938
      ],
      [
        "Library",
        -10.117408752441406
      ],
      [
        "下さい",
        -10.117544174194336
      ],
      [
        "dead",
        -10.11782455444336
      ],
      [
        "左",
        -10.118398666381836
      ],
      [
        "父",
        -10.118453025817871
      ],
      [
        "団体",
        -10.11874008178711
      ],
      [
        "China",
        -10.118856430053711
      ],
      [
        "例",
        -10.1207857131958
      ],
      [
        "television",
        -10.121088981628418
      ],
      [
        "け",
        -10.121554374694824
      ],
      [
        "ニュース",
        -10.121932983398438
      ],
      [
        "角",
        -10.122010231018066
      ],
      [
        "Ch",
        -10.122692108154297
      ],
      [
        "Indian",
        -10.12289047241211
      ],
      [
        "販売",
        -10.123348236083984
      ],
      [
        "Station",
        -10.123698234558105
      ],
      [
        "gen",
        -10.124168395996094
      ],
      [
        "秀",
        -10.124678611755371
      ],
      [
        "country",
        -10.124833106994629
      ],
      [
        "own",
        -10.125604629516602
      ],
      [
        "足",
        -10.125787734985352
      ],
      [
        "発売",
        -10.12598705291748
      ],
      [
        "Di",
        -10.126274108886719
      ],
      [
        "様々な",
        -10.126614570617676
      ],
      [
        "ビー",
        -10.126935958862305
      ],
      [
        "あり",
        -10.127896308898926
      ],
      [
        "Smith",
        -10.128266334533691
      ],
      [
        "Chinese",
        -10.129617691040039
      ],
      [
        "都",
        -10.129822731018066
      ],
      [
        "IMDb",
        -10.130597114562988
      ],
      [
        "雪",
        -10.130675315856934
      ],
      [
        "central",
        -10.13087272644043
      ],
      [
        "&&",
        -10.131957054138184
      ],
      [
        "年まで",
        -10.132904052734375
      ],
      [
        "bi",
        -10.133370399475098
      ],
      [
        "und",
        -10.134196281433105
      ],
      [
        "表",
        -10.134214401245117
      ],
      [
        "領",
        -10.13432502746582
      ],
      [
        "municipality",
        -10.135334014892578
      ],
      [
        "default",
        -10.136082649230957
      ],
      [
        "Zealand",
        -10.136134147644043
      ],
      [
        "現在",
        -10.137107849121094
      ],
      [
        "Reference",
        -10.137165069580078
      ],
      [
        "ヴァ",
        -10.138665199279785
      ],
      [
        "類",
        -10.13902759552002
      ],
      [
        "死",
        -10.139068603515625
      ],
      [
        "project",
        -10.141684532165527
      ],
      [
        "豊",
        -10.142486572265625
      ],
      [
        "すること",
        -10.14360523223877
      ],
      [
        "節",
        -10.143982887268066
      ],
      [
        "ac",
        -10.14459228515625
      ],
      [
        "んだ",
        -10.145188331604004
      ],
      [
        "Field",
        -10.147184371948242
      ],
      [
        "アメリカ合衆国",
        -10.147233009338379
      ],
      [
        "隆",
        -10.147589683532715
      ],
      [
        "これ",
        -10.147762298583984
      ],
      [
        "Green",
        -10.147835731506348
      ],
      [
        "宇宙",
        -10.148008346557617
      ],
      [
        "郷",
        -10.148061752319336
      ],
      [
        "友",
        -10.148259162902832
      ],
      [
        "守",
        -10.148746490478516
      ],
      [
        "これらの",
        -10.1493558883667
      ],
      [
        "バン",
        -10.149730682373047
      ],
      [
        "陽",
        -10.150141716003418
      ],
      [
        "established",
        -10.15042495727539
      ],
      [
        "初の",
        -10.150792121887207
      ],
      [
        "っ",
        -10.150858879089355
      ],
      [
        "伝",
        -10.151348114013672
      ],
      [
        "わ",
        -10.151622772216797
      ],
      [
        "body",
        -10.151836395263672
      ],
      [
        "ネット",
        -10.152298927307129
      ],
      [
        "一方",
        -10.1528959274292
      ],
      [
        "開催",
        -10.153396606445312
      ],
      [
        "委員会",
        -10.153546333312988
      ],
      [
        "〜(",
        -10.154097557067871
      ],
      [
        "ヌ",
        -10.1548433303833
      ],
      [
        "model",
        -10.155817985534668
      ],
      [
        "劇場",
        -10.1558198928833
      ],
      [
        "general",
        -10.155876159667969
      ],
      [
        "月には",
        -10.155920028686523
      ],
      [
        "交通",
        -10.156947135925293
      ],
      [
        "国家",
        -10.157256126403809
      ],
      [
        "ちゃん",
        -10.157330513000488
      ],
      [
        "タイ",
        -10.157485008239746
      ],
      [
        "加",
        -10.157662391662598
      ],
      [
        "自動車",
        -10.157949447631836
      ],
      [
        "full",
        -10.158602714538574
      ],
      [
        "Summer",
        -10.159771919250488
      ],
      [
        "竜",
        -10.159957885742188
      ],
      [
        "藤",
        -10.160140037536621
      ],
      [
        "dis",
        -10.160215377807617
      ],
      [
        "瀬",
        -10.16043472290039
      ],
      [
        "Du",
        -10.160623550415039
      ],
      [
        "Post",
        -10.161276817321777
      ],
      [
        "ホーム",
        -10.161839485168457
      ],
      [
        "IN",
        -10.162093162536621
      ],
      [
        "During",
        -10.162635803222656
      ],
      [
        "当初は",
        -10.162842750549316
      ],
      [
        "産業",
        -10.163341522216797
      ],
      [
        "ゼ",
        -10.163662910461426
      ],
      [
        "track",
        -10.165124893188477
      ],
      [
        "側",
        -10.165739059448242
      ],
      [
        "File",
        -10.167627334594727
      ],
      [
        "業",
        -10.167798042297363
      ],
      [
        "大きな",
        -10.168115615844727
      ],
      [
        "Martin",
        -10.168609619140625
      ],
      [
        "右",
        -10.168745994567871
      ],
      [
        "Index",
        -10.169655799865723
      ],
      [
        "草",
        -10.169731140136719
      ],
      [
        "仁",
        -10.169872283935547
      ],
      [
        "未",
        -10.170578956604004
      ],
      [
        "worked",
        -10.171623229980469
      ],
      [
        "部門",
        -10.17197036743164
      ],
      [
        "建設",
        -10.172441482543945
      ],
      [
        "ランド",
        -10.172891616821289
      ],
      [
        "major",
        -10.17309284210205
      ],
      [
        "language",
        -10.173380851745605
      ],
      [
        "common",
        -10.173466682434082
      ],
      [
        "sen",
        -10.173541069030762
      ],
      [
        "lies",
        -10.173787117004395
      ],
      [
        "なかった",
        -10.173904418945312
      ],
      [
        "されて",
        -10.17401123046875
      ],
      [
        "鈴木",
        -10.174198150634766
      ],
      [
        "vi",
        -10.174726486206055
      ],
      [
        "原作",
        -10.174790382385254
      ],
      [
        "ステージ",
        -10.17500114440918
      ],
      [
        "状態",
        -10.17577838897705
      ],
      [
        "を受けた",
        -10.17591667175293
      ],
      [
        "コース",
        -10.176213264465332
      ],
      [
        "Book",
        -10.176369667053223
      ],
      [
        "script",
        -10.177047729492188
      ],
      [
        "Key",
        -10.17846965789795
      ],
      [
        "director",
        -10.179174423217773
      ],
      [
        "キャラクター",
        -10.179305076599121
      ],
      [
        "フィ",
        -10.179316520690918
      ],
      [
        "vocals",
        -10.179783821105957
      ],
      [
        "銀行",
        -10.180124282836914
      ],
      [
        "status",
        -10.180164337158203
      ],
      [
        "present",
        -10.180999755859375
      ],
      [
        "coach",
        -10.181384086608887
      ],
      [
        "パン",
        -10.182740211486816
      ],
      [
        "器",
        -10.182915687561035
      ],
      [
        "航空",
        -10.18297004699707
      ],
      [
        "!=",
        -10.183185577392578
      ],
      [
        "Henry",
        -10.183931350708008
      ],
      [
        "Ca",
        -10.18418025970459
      ],
      [
        "Games",
        -10.184481620788574
      ],
      [
        "兼",
        -10.184701919555664
      ],
      [
        "Its",
        -10.1852445602417
      ],
      [
        "method",
        -10.186616897583008
      ],
      [
        "ir",
        -10.18693733215332
      ],
      [
        "池",
        -10.187093734741211
      ],
      [
        "Mc",
        -10.187840461730957
      ],
      [
        "Species",
        -10.188252449035645
      ],
      [
        "order",
        -10.1883544921875
      ],
      [
        "スタジオ",
        -10.188481330871582
      ],
      [
        "たい",
        -10.189486503601074
      ],
      [
        "基",
        -10.189494132995605
      ],
      [
        "Web",
        -10.189806938171387
      ],
      [
        "js",
        -10.190473556518555
      ],
      [
        "department",
        -10.190587997436523
      ],
      [
        "Line",
        -10.191469192504883
      ],
      [
        "初代",
        -10.192347526550293
      ],
      [
        "app",
        -10.192449569702148
      ],
      [
        "」、「",
        -10.192581176757812
      ],
      [
        "Academy",
        -10.192995071411133
      ],
      [
        "ak",
        -10.193700790405273
      ],
      [
        "最初の",
        -10.194228172302246
      ],
      [
        "Li",
        -10.19454574584961
      ],
      [
        "第二",
        -10.195320129394531
      ],
      [
        "listed",
        -10.195683479309082
      ],
      [
        "られる",
        -10.196588516235352
      ],
      [
        "created",
        -10.196856498718262
      ],
      [
        "艦",
        -10.197312355041504
      ],
      [
        "Error",
        -10.197416305541992
      ],
      [
        "array",
        -10.197916984558105
      ],
      [
        "時の",
        -10.198321342468262
      ],
      [
        "url",
        -10.19942855834961
      ],
      [
        "guitar",
        -10.199748992919922
      ],
      [
        "姫",
        -10.199946403503418
      ],
      [
        "Province",
        -10.200173377990723
      ],
      [
        "ロシア",
        -10.200543403625488
      ],
      [
        "item",
        -10.200725555419922
      ],
      [
        "src",
        -10.201092720031738
      ],
      [
        "華",
        -10.202722549438477
      ],
      [
        "のある",
        -10.204146385192871
      ],
      [
        "started",
        -10.20439338684082
      ],
      [
        "自分の",
        -10.205036163330078
      ],
      [
        "説",
        -10.205907821655273
      ],
      [
        "コーナー",
        -10.20719051361084
      ],
      [
        "za",
        -10.209319114685059
      ],
      [
        "},",
        -10.209619522094727
      ],
      [
        "Sir",
        -10.210646629333496
      ],
      [
        "ny",
        -10.21225643157959
      ],
      [
        "ライン",
        -10.212634086608887
      ],
      [
        "Rock",
        -10.212940216064453
      ],
      [
        "試験",
        -10.212952613830566
      ],
      [
        "label",
        -10.21323013305664
      ],
      [
        "lin",
        -10.213366508483887
      ],
      [
        "When",
        -10.214007377624512
      ],
      [
        "Bay",
        -10.214046478271484
      ],
      [
        "であったが",
        -10.214285850524902
      ],
      [
        "fa",
        -10.215766906738281
      ],
      [
        "produced",
        -10.215960502624512
      ],
      [
        "車両",
        -10.216914176940918
      ],
      [
        "recorded",
        -10.216980934143066
      ],
      [
        "泉",
        -10.217547416687012
      ],
      [
        "ham",
        -10.217638969421387
      ],
      [
        "あるいは",
        -10.218077659606934
      ],
      [
        "Billboard",
        -10.219944953918457
      ],
      [
        "];",
        -10.2200927734375
      ],
      [
        "Survey",
        -10.220634460449219
      ],
      [
        "としての",
        -10.220784187316895
      ],
      [
        "サー",
        -10.221128463745117
      ],
      [
        "チャ",
        -10.221163749694824
      ],
      [
        "ran",
        -10.221198081970215
      ],
      [
        "作戦",
        -10.221395492553711
      ],
      [
        "log",
        -10.221668243408203
      ],
      [
        "秋",
        -10.2218017578125
      ],
      [
        "just",
        -10.221909523010254
      ],
      [
        "Exception",
        -10.222105979919434
      ],
      [
        "make",
        -10.222412109375
      ],
      [
        "Great",
        -10.223431587219238
      ],
      [
        "Mark",
        -10.224077224731445
      ],
      [
        "少年",
        -10.22439956665039
      ],
      [
        "debut",
        -10.224614143371582
      ],
      [
        "編成",
        -10.225316047668457
      ],
      [
        "Army",
        -10.22668743133545
      ],
      [
        "団",
        -10.227355003356934
      ],
      [
        "上の",
        -10.22831916809082
      ],
      [
        "させ",
        -10.229059219360352
      ],
      [
        "佐",
        -10.229155540466309
      ],
      [
        "妻",
        -10.229641914367676
      ],
      [
        "ロック",
        -10.229777336120605
      ],
      [
        "ブル",
        -10.230541229248047
      ],
      [
        "living",
        -10.23088550567627
      ],
      [
        "員",
        -10.231818199157715
      ],
      [
        "制度",
        -10.232468605041504
      ],
      [
        "radio",
        -10.233397483825684
      ],
      [
        "内の",
        -10.23361587524414
      ],
      [
        "満",
        -10.233673095703125
      ],
      [
        "sch",
        -10.233903884887695
      ],
      [
        "月から",
        -10.23400592803955
      ],
      [
        "node",
        -10.234021186828613
      ],
      [
        "されており",
        -10.235037803649902
      ],
      [
        "鬼",
        -10.236042976379395
      ],
      [
        "SP",
        -10.236863136291504
      ],
      [
        "Ireland",
        -10.236977577209473
      ],
      [
        "の一部",
        -10.237190246582031
      ],
      [
        "playing",
        -10.23754596710205
      ],
      [
        "プロデューサー",
        -10.23756217956543
      ],
      [
        "ya",
        -10.237981796264648
      ],
      [
        "浦",
        -10.238516807556152
      ],
      [
        "だったが",
        -10.239151954650879
      ],
      [
        "命",
        -10.239527702331543
      ],
      [
        "園",
        -10.240421295166016
      ],
      [
        "appointed",
        -10.240899085998535
      ],
      [
        "ので",
        -10.240998268127441
      ],
      [
        "と同じ",
        -10.2410249710083
      ],
      [
        "男子",
        -10.242472648620605
      ],
      [
        "福",
        -10.242552757263184
      ],
      [
        "主演",
        -10.243788719177246
      ],
      [
        "職",
        -10.243810653686523
      ],
      [
        "イタリア",
        -10.24385929107666
      ],
      [
        "ガー",
        -10.244072914123535
      ],
      [
        "教授",
        -10.244295120239258
      ],
      [
        "works",
        -10.244623184204102
      ],
      [
        "マル",
        -10.245044708251953
      ],
      [
        "孝",
        -10.246221542358398
      ],
      [
        "PC",
        -10.246977806091309
      ],
      [
        "レース",
        -10.248175621032715
      ],
      [
        "six",
        -10.248868942260742
      ],
      [
        "still",
        -10.249059677124023
      ],
      [
        "ベスト",
        -10.249905586242676
      ],
      [
        "一郎",
        -10.25051498413086
      ],
      [
        "熱",
        -10.25112247467041
      ],
      [
        "源",
        -10.251631736755371
      ],
      [
        "col",
        -10.25169563293457
      ],
      [
        "port",
        -10.251702308654785
      ],
      [
        "であるが",
        -10.252057075500488
      ],
      [
        "メンバー",
        -10.252121925354004
      ],
      [
        "映像",
        -10.252150535583496
      ],
      [
        "Western",
        -10.252782821655273
      ],
      [
        "とし",
        -10.25284481048584
      ],
      [
        "しない",
        -10.253372192382812
      ],
      [
        "研究所",
        -10.253398895263672
      ],
      [
        "貴",
        -10.25417709350586
      ],
      [
        "let",
        -10.25487995147705
      ],
      [
        "家の",
        -10.255364418029785
      ],
      [
        "構造",
        -10.255993843078613
      ],
      [
        "returned",
        -10.256319999694824
      ],
      [
        "名古屋",
        -10.257269859313965
      ],
      [
        "絵",
        -10.25728988647461
      ],
      [
        "デビュー",
        -10.257299423217773
      ],
      [
        "楽",
        -10.25738525390625
      ],
      [
        "Source",
        -10.257745742797852
      ],
      [
        "現代",
        -10.2578763961792
      ],
      [
        "Los",
        -10.258692741394043
      ],
      [
        "タン",
        -10.258763313293457
      ],
      [
        "role",
        -10.259100914001465
      ],
      [
        "そのため",
        -10.259190559387207
      ],
      [
        "小説",
        -10.259385108947754
      ],
      [
        "ous",
        -10.259469985961914
      ],
      [
        "ような",
        -10.259509086608887
      ],
      [
        "能力",
        -10.259578704833984
      ],
      [
        "View",
        -10.260113716125488
      ],
      [
        "だけ",
        -10.260250091552734
      ],
      [
        "デン",
        -10.260396003723145
      ],
      [
        "Paris",
        -10.260581016540527
      ],
      [
        "signed",
        -10.261743545532227
      ],
      [
        "湖",
        -10.262092590332031
      ],
      [
        "Hill",
        -10.263866424560547
      ],
      [
        "党",
        -10.264318466186523
      ],
      [
        "Review",
        -10.265342712402344
      ],
      [
        "属",
        -10.265676498413086
      ],
      [
        "一般",
        -10.265829086303711
      ],
      [
        "量",
        -10.266213417053223
      ],
      [
        "佐藤",
        -10.266349792480469
      ],
      [
        "President",
        -10.266365051269531
      ],
      [
        "にあった",
        -10.267711639404297
      ],
      [
        "Iran",
        -10.268410682678223
      ],
      [
        "MP",
        -10.268424034118652
      ],
      [
        "BBC",
        -10.26860237121582
      ],
      [
        "help",
        -10.269165992736816
      ],
      [
        "ぎ",
        -10.270220756530762
      ],
      [
        "Texas",
        -10.270270347595215
      ],
      [
        "video",
        -10.270417213439941
      ],
      [
        "went",
        -10.271403312683105
      ],
      [
        "〉",
        -10.272735595703125
      ],
      [
        "release",
        -10.273015022277832
      ],
      [
        "漫画",
        -10.273396492004395
      ],
      [
        "should",
        -10.273802757263184
      ],
      [
        "横浜",
        -10.274493217468262
      ],
      [
        "Open",
        -10.2747163772583
      ],
      [
        "Guide",
        -10.274908065795898
      ],
      [
        "Mo",
        -10.275067329406738
      ],
      [
        "便",
        -10.275385856628418
      ],
      [
        "active",
        -10.2760591506958
      ],
      [
        "those",
        -10.276557922363281
      ],
      [
        "tt",
        -10.276597023010254
      ],
      [
        "Africa",
        -10.276885986328125
      ],
      [
        "story",
        -10.276988983154297
      ],
      [
        "And",
        -10.27722454071045
      ],
      [
        "Super",
        -10.278083801269531
      ],
      [
        "かつて",
        -10.27880859375
      ],
      [
        "va",
        -10.278884887695312
      ],
      [
        "ホテル",
        -10.278926849365234
      ],
      [
        "田中",
        -10.279878616333008
      ],
      [
        "Science",
        -10.280220985412598
      ],
      [
        "Day",
        -10.280316352844238
      ],
      [
        "Live",
        -10.280802726745605
      ],
      [
        "身",
        -10.280893325805664
      ],
      [
        "記念",
        -10.28125
      ],
      [
        "生産",
        -10.281968116760254
      ],
      [
        "自身の",
        -10.282285690307617
      ],
      [
        "フル",
        -10.282342910766602
      ],
      [
        "Research",
        -10.282910346984863
      ],
      [
        "light",
        -10.283124923706055
      ],
      [
        "新しい",
        -10.2842435836792
      ],
      [
        "view",
        -10.284432411193848
      ],
      [
        "を務めた",
        -10.284759521484375
      ],
      [
        "等の",
        -10.285286903381348
      ],
      [
        "温泉",
        -10.286043167114258
      ],
      [
        "ci",
        -10.28699779510498
      ],
      [
        "☆",
        -10.288196563720703
      ],
      [
        "階",
        -10.28900146484375
      ],
      [
        "api",
        -10.290472030639648
      ],
      [
        "Br",
        -10.291064262390137
      ],
      [
        "Project",
        -10.291857719421387
      ],
      [
        "取り",
        -10.292106628417969
      ],
      [
        "板",
        -10.292867660522461
      ],
      [
        "教",
        -10.293057441711426
      ],
      [
        "Ha",
        -10.29442310333252
      ],
      [
        "横",
        -10.294821739196777
      ],
      [
        "何",
        -10.295007705688477
      ],
      [
        "プロジェクト",
        -10.295150756835938
      ],
      [
        "』『",
        -10.296152114868164
      ],
      [
        "ary",
        -10.296880722045898
      ],
      [
        "羽",
        -10.29752254486084
      ],
      [
        "助",
        -10.297870635986328
      ],
      [
        "祭",
        -10.297959327697754
      ],
      [
        "電",
        -10.29928207397461
      ],
      [
        "恵",
        -10.300198554992676
      ],
      [
        "ru",
        -10.300674438476562
      ],
      [
        "Championships",
        -10.302824974060059
      ],
      [
        "によると",
        -10.303582191467285
      ],
      [
        "res",
        -10.303665161132812
      ],
      [
        "製",
        -10.303671836853027
      ],
      [
        "男性",
        -10.304359436035156
      ],
      [
        "政府",
        -10.304527282714844
      ],
      [
        "関",
        -10.304903030395508
      ],
      [
        "ui",
        -10.30518627166748
      ],
      [
        "教会",
        -10.305201530456543
      ],
      [
        "mar",
        -10.305665016174316
      ],
      [
        "Oxford",
        -10.307430267333984
      ],
      [
        "紀",
        -10.30838680267334
      ],
      [
        "Court",
        -10.308795928955078
      ],
      [
        "設計",
        -10.309307098388672
      ],
      [
        "においては",
        -10.309340476989746
      ],
      [
        "付",
        -10.310046195983887
      ],
      [
        "族",
        -10.310212135314941
      ],
      [
        "ga",
        -10.310763359069824
      ],
      [
        "Repo",
        -10.313236236572266
      ],
      [
        "Government",
        -10.31363296508789
      ],
      [
        "中村",
        -10.313841819763184
      ],
      [
        "again",
        -10.314448356628418
      ],
      [
        "に対し",
        -10.3147611618042
      ],
      [
        "SA",
        -10.315107345581055
      ],
      [
        "フリー",
        -10.315694808959961
      ],
      [
        "ster",
        -10.316313743591309
      ],
      [
        "person",
        -10.316349029541016
      ],
      [
        "韓国",
        -10.317278861999512
      ],
      [
        "Not",
        -10.317490577697754
      ],
      [
        "ジュ",
        -10.317817687988281
      ],
      [
        "info",
        -10.317851066589355
      ],
      [
        "家族",
        -10.318015098571777
      ],
      [
        "Col",
        -10.31827163696289
      ],
      [
        "Louis",
        -10.319520950317383
      ],
      [
        "博",
        -10.31983757019043
      ],
      [
        "クラス",
        -10.320094108581543
      ],
      [
        "データ",
        -10.320390701293945
      ],
      [
        "配信",
        -10.320777893066406
      ],
      [
        "桜",
        -10.321124076843262
      ],
      [
        "支援",
        -10.321508407592773
      ],
      [
        "property",
        -10.321939468383789
      ],
      [
        "Mary",
        -10.321988105773926
      ],
      [
        "num",
        -10.322627067565918
      ],
      [
        "Brown",
        -10.322972297668457
      ],
      [
        "薬",
        -10.323594093322754
      ],
      [
        "().",
        -10.324084281921387
      ],
      [
        "Tom",
        -10.32419204711914
      ],
      [
        "pa",
        -10.324745178222656
      ],
      [
        "変更",
        -10.324853897094727
      ],
      [
        "られ",
        -10.324974060058594
      ],
      [
        "international",
        -10.325004577636719
      ],
      [
        "などで",
        -10.325281143188477
      ],
      [
        "機関",
        -10.325332641601562
      ],
      [
        "進",
        -10.325454711914062
      ],
      [
        "wife",
        -10.325568199157715
      ],
      [
        "Long",
        -10.325818061828613
      ],
      [
        "MS",
        -10.326410293579102
      ],
      [
        "SC",
        -10.326814651489258
      ],
      [
        "());",
        -10.327075004577637
      ],
      [
        "康",
        -10.327147483825684
      ],
      [
        "call",
        -10.327300071716309
      ],
      [
        "マイ",
        -10.3277587890625
      ],
      [
        "部隊",
        -10.328064918518066
      ],
      [
        "input",
        -10.328361511230469
      ],
      [
        "PMID",
        -10.328544616699219
      ],
      [
        "刑事",
        -10.328572273254395
      ],
      [
        "author",
        -10.328765869140625
      ],
      [
        "Mac",
        -10.328822135925293
      ],
      [
        "However",
        -10.329092979431152
      ],
      [
        "それぞれ",
        -10.32910442352295
      ],
      [
        "kilometres",
        -10.330109596252441
      ],
      [
        "Home",
        -10.330452919006348
      ],
      [
        "誌",
        -10.330634117126465
      ],
      [
        "road",
        -10.33081340789795
      ],
      [
        "十",
        -10.33084487915039
      ],
      [
        "Info",
        -10.331045150756836
      ],
      [
        "最後の",
        -10.33169937133789
      ],
      [
        "奈",
        -10.331887245178223
      ],
      [
        "っていた",
        -10.331930160522461
      ],
      [
        "行動",
        -10.332267761230469
      ],
      [
        "currently",
        -10.332367897033691
      ],
      [
        "路線",
        -10.332643508911133
      ],
      [
        "Up",
        -10.332815170288086
      ],
      [
        "rock",
        -10.333029747009277
      ],
      [
        "Committee",
        -10.333066940307617
      ],
      [
        "契約",
        -10.333165168762207
      ],
      [
        "railway",
        -10.333991050720215
      ],
      [
        "section",
        -10.334345817565918
      ],
      [
        "也",
        -10.334365844726562
      ],
      [
        "日本テレビ",
        -10.334616661071777
      ],
      [
        "海軍",
        -10.334647178649902
      ],
      [
        "Act",
        -10.334996223449707
      ],
      [
        "歴史",
        -10.336796760559082
      ],
      [
        "工事",
        -10.336941719055176
      ],
      [
        "ll",
        -10.337285995483398
      ],
      [
        "ier",
        -10.337907791137695
      ],
      [
        "図",
        -10.338111877441406
      ],
      [
        "ワールド",
        -10.33821964263916
      ],
      [
        "藩",
        -10.338459014892578
      ],
      [
        "地球",
        -10.339456558227539
      ],
      [
        "));",
        -10.340362548828125
      ],
      [
        "画",
        -10.340779304504395
      ],
      [
        "Olympic",
        -10.340920448303223
      ],
      [
        "キー",
        -10.341181755065918
      ],
      [
        "Profile",
        -10.341349601745605
      ],
      [
        "鳥",
        -10.341645240783691
      ],
      [
        "装置",
        -10.342092514038086
      ],
      [
        "を行い",
        -10.3424654006958
      ],
      [
        "format",
        -10.342826843261719
      ],
      [
        "通信",
        -10.343096733093262
      ],
      [
        "opened",
        -10.343498229980469
      ],
      [
        "MC",
        -10.343762397766113
      ],
      [
        "approximately",
        -10.344331741333008
      ],
      [
        "公開",
        -10.344651222229004
      ],
      [
        "ドル",
        -10.34490966796875
      ],
      [
        "includes",
        -10.345117568969727
      ],
      [
        "USA",
        -10.345230102539062
      ],
      [
        "results",
        -10.345649719238281
      ],
      [
        "box",
        -10.345816612243652
      ],
      [
        "のための",
        -10.346335411071777
      ],
      [
        "伊",
        -10.346417427062988
      ],
      [
        "ies",
        -10.347635269165039
      ],
      [
        "Filepath",
        -10.347709655761719
      ],
      [
        "MA",
        -10.347731590270996
      ],
      [
        "times",
        -10.348310470581055
      ],
      [
        "テレビ朝日",
        -10.349284172058105
      ],
      [
        "Irish",
        -10.350650787353516
      ],
      [
        "char",
        -10.350873947143555
      ],
      [
        "河",
        -10.351186752319336
      ],
      [
        "紙",
        -10.351531028747559
      ],
      [
        "DC",
        -10.352627754211426
      ],
      [
        "End",
        -10.352648735046387
      ],
      [
        "Christian",
        -10.353139877319336
      ],
      [
        "エンジン",
        -10.353645324707031
      ],
      [
        "PS",
        -10.353931427001953
      ],
      [
        "学生",
        -10.354717254638672
      ],
      [
        "Dutch",
        -10.354938507080078
      ],
      [
        "ger",
        -10.355551719665527
      ],
      [
        "経",
        -10.355744361877441
      ],
      [
        "前に",
        -10.355795860290527
      ],
      [
        "race",
        -10.35594654083252
      ],
      [
        "美術",
        -10.355952262878418
      ],
      [
        "different",
        -10.356121063232422
      ],
      [
        "writer",
        -10.357330322265625
      ],
      [
        "white",
        -10.357673645019531
      ],
      [
        "web",
        -10.357682228088379
      ],
      [
        "because",
        -10.358492851257324
      ],
      [
        "range",
        -10.35917854309082
      ],
      [
        "倉",
        -10.359850883483887
      ],
      [
        "formed",
        -10.359903335571289
      ],
      [
        "nbsp",
        -10.360005378723145
      ],
      [
        "Women",
        -10.360032081604004
      ],
      [
        "コー",
        -10.360051155090332
      ],
      [
        "Joseph",
        -10.360282897949219
      ],
      [
        "Baseball",
        -10.360377311706543
      ],
      [
        "会議",
        -10.360564231872559
      ],
      [
        "ジェ",
        -10.360986709594727
      ],
      [
        "families",
        -10.361042022705078
      ],
      [
        "洋",
        -10.362329483032227
      ],
      [
        "};",
        -10.362336158752441
      ],
      [
        "矢",
        -10.362369537353516
      ],
      [
        "row",
        -10.363025665283203
      ],
      [
        "Ben",
        -10.363203048706055
      ],
      [
        "ツアー",
        -10.36329174041748
      ],
      [
        "another",
        -10.364203453063965
      ],
      [
        "系統",
        -10.364788055419922
      ],
      [
        "Con",
        -10.364814758300781
      ],
      [
        "課",
        -10.364874839782715
      ],
      [
        "後は",
        -10.364950180053711
      ],
      [
        "工業",
        -10.365137100219727
      ],
      [
        "自",
        -10.365211486816406
      ],
      [
        "九州",
        -10.365325927734375
      ],
      [
        "live",
        -10.36562442779541
      ],
      [
        "空港",
        -10.36623477935791
      ],
      [
        "border",
        -10.366364479064941
      ],
      [
        "ros",
        -10.366652488708496
      ],
      [
        "Path",
        -10.367809295654297
      ],
      [
        "最大",
        -10.3678617477417
      ],
      [
        "Inc",
        -10.367985725402832
      ],
      [
        "date",
        -10.368021011352539
      ],
      [
        "period",
        -10.368391036987305
      ],
      [
        "像",
        -10.368566513061523
      ],
      [
        "政治",
        -10.369267463684082
      ],
      [
        "Parliament",
        -10.369314193725586
      ],
      [
        "Dictionary",
        -10.36959457397461
      ],
      [
        "出場",
        -10.37021255493164
      ],
      [
        "daughter",
        -10.370779037475586
      ],
      [
        "Lo",
        -10.371037483215332
      ],
      [
        "context",
        -10.37325382232666
      ],
      [
        "||",
        -10.373506546020508
      ],
      [
        "Per",
        -10.374114990234375
      ],
      [
        "Railway",
        -10.374220848083496
      ],
      [
        "ものである",
        -10.374576568603516
      ],
      [
        "Roman",
        -10.374579429626465
      ],
      [
        "介",
        -10.374595642089844
      ],
      [
        "take",
        -10.374855995178223
      ],
      [
        "river",
        -10.37489128112793
      ],
      [
        "ford",
        -10.375290870666504
      ],
      [
        "Bill",
        -10.375885963439941
      ],
      [
        "ギター",
        -10.376370429992676
      ],
      [
        "put",
        -10.377440452575684
      ],
      [
        "パー",
        -10.377849578857422
      ],
      [
        "設定",
        -10.378113746643066
      ],
      [
        "建築",
        -10.378219604492188
      ],
      [
        "term",
        -10.378329277038574
      ],
      [
        "Old",
        -10.37873363494873
      ],
      [
        "再び",
        -10.378745079040527
      ],
      [
        "gl",
        -10.379081726074219
      ],
      [
        "文字",
        -10.379374504089355
      ],
      [
        "毛",
        -10.379561424255371
      ],
      [
        "科学",
        -10.379734992980957
      ],
      [
        "summary",
        -10.38012409210205
      ],
      [
        "タイム",
        -10.380498886108398
      ],
      [
        "Ka",
        -10.38076400756836
      ],
      [
        "理",
        -10.380928993225098
      ],
      [
        "そ",
        -10.381160736083984
      ],
      [
        "Wales",
        -10.381803512573242
      ],
      [
        "自然",
        -10.38217544555664
      ],
      [
        "['",
        -10.382593154907227
      ],
      [
        "東京都",
        -10.382686614990234
      ],
      [
        "ana",
        -10.38270378112793
      ],
      [
        "ポイント",
        -10.383709907531738
      ],
      [
        "administrative",
        -10.38442611694336
      ],
      [
        "block",
        -10.384432792663574
      ],
      [
        "Page",
        -10.384958267211914
      ],
      [
        "智",
        -10.385456085205078
      ],
      [
        "Text",
        -10.385558128356934
      ],
      [
        "Am",
        -10.387264251708984
      ],
      [
        "用の",
        -10.387395858764648
      ],
      [
        "副",
        -10.387955665588379
      ],
      [
        "po",
        -10.388306617736816
      ],
      [
        "Commission",
        -10.388753890991211
      ],
      [
        "としている",
        -10.390256881713867
      ],
      [
        "以下の",
        -10.390848159790039
      ],
      [
        "According",
        -10.390891075134277
      ],
      [
        "Public",
        -10.391064643859863
      ],
      [
        "ba",
        -10.391275405883789
      ],
      [
        "富",
        -10.391438484191895
      ],
      [
        "teams",
        -10.391778945922852
      ],
      [
        "our",
        -10.391800880432129
      ],
      [
        "development",
        -10.391995429992676
      ],
      [
        "Town",
        -10.392965316772461
      ],
      [
        "バル",
        -10.393439292907715
      ],
      [
        "私",
        -10.393575668334961
      ],
      [
        "個",
        -10.394195556640625
      ],
      [
        "party",
        -10.394286155700684
      ],
      [
        "感",
        -10.394320487976074
      ],
      [
        "越",
        -10.394343376159668
      ],
      [
        "サイト",
        -10.394913673400879
      ],
      [
        "SS",
        -10.395147323608398
      ],
      [
        "ワン",
        -10.39553451538086
      ],
      [
        "剣",
        -10.395634651184082
      ],
      [
        "African",
        -10.395752906799316
      ],
      [
        "Population",
        -10.395896911621094
      ],
      [
        "ニュー",
        -10.396739959716797
      ],
      [
        "帯",
        -10.39709186553955
      ],
      [
        "警察",
        -10.3975191116333
      ],
      [
        "Bo",
        -10.397772789001465
      ],
      [
        "Big",
        -10.398062705993652
      ],
      [
        "雑誌",
        -10.398170471191406
      ],
      [
        "京",
        -10.39885425567627
      ],
      [
        "support",
        -10.399110794067383
      ],
      [
        "そう",
        -10.399169921875
      ],
      [
        "Books",
        -10.399177551269531
      ],
      [
        "娘",
        -10.399292945861816
      ],
      [
        "ヘ",
        -10.39960765838623
      ],
      [
        "directed",
        -10.399690628051758
      ],
      [
        "枠",
        -10.399835586547852
      ],
      [
        "Second",
        -10.401284217834473
      ],
      [
        "経営",
        -10.401519775390625
      ],
      [
        "以下",
        -10.40194320678711
      ],
      [
        "ノー",
        -10.402721405029297
      ],
      [
        "Europe",
        -10.40279483795166
      ],
      [
        "球",
        -10.402801513671875
      ],
      [
        "Sea",
        -10.4030122756958
      ],
      [
        "ut",
        -10.403617858886719
      ],
      [
        "広島",
        -10.403621673583984
      ],
      [
        "状況",
        -10.404479026794434
      ],
      [
        "写真",
        -10.404671669006348
      ],
      [
        "Chicago",
        -10.404976844787598
      ],
      [
        "銀",
        -10.405117988586426
      ],
      [
        "開",
        -10.4052095413208
      ],
      [
        "ji",
        -10.405282020568848
      ],
      [
        "Code",
        -10.405306816101074
      ],
      [
        "TO",
        -10.405318260192871
      ],
      [
        "Su",
        -10.405364036560059
      ],
      [
        "出身の",
        -10.405694007873535
      ],
      [
        "Tour",
        -10.405717849731445
      ],
      [
        "low",
        -10.405932426452637
      ],
      [
        "Norwegian",
        -10.406158447265625
      ],
      [
        "Main",
        -10.406366348266602
      ],
      [
        "ジー",
        -10.407553672790527
      ],
      [
        "wa",
        -10.40883731842041
      ],
      [
        "target",
        -10.409392356872559
      ],
      [
        "ひ",
        -10.410001754760742
      ],
      [
        "AM",
        -10.410008430480957
      ],
      [
        "バック",
        -10.41005802154541
      ],
      [
        "singer",
        -10.410079956054688
      ],
      [
        "文庫",
        -10.410106658935547
      ],
      [
        "び",
        -10.410107612609863
      ],
      [
        "entry",
        -10.410239219665527
      ],
      [
        "Awards",
        -10.410482406616211
      ],
      [
        "close",
        -10.410662651062012
      ],
      [
        "office",
        -10.410913467407227
      ],
      [
        "アジア",
        -10.410981178283691
      ],
      [
        "用語",
        -10.411174774169922
      ],
      [
        "ガス",
        -10.411176681518555
      ],
      [
        "Val",
        -10.41148567199707
      ],
      [
        "Festival",
        -10.41182804107666
      ],
      [
        "浜",
        -10.412481307983398
      ],
      [
        "再",
        -10.412544250488281
      ],
      [
        "});",
        -10.413168907165527
      ],
      [
        "Virginia",
        -10.413942337036133
      ],
      [
        "ov",
        -10.414100646972656
      ],
      [
        "ふ",
        -10.414535522460938
      ],
      [
        "could",
        -10.414642333984375
      ],
      [
        "おり",
        -10.415355682373047
      ],
      [
        "Catholic",
        -10.416389465332031
      ],
      [
        "OF",
        -10.416426658630371
      ],
      [
        "came",
        -10.416786193847656
      ],
      [
        "ではない",
        -10.417536735534668
      ],
      [
        "á",
        -10.417643547058105
      ],
      [
        "Ko",
        -10.41873836517334
      ],
      [
        "profile",
        -10.4189453125
      ],
      [
        "available",
        -10.41910171508789
      ],
      [
        "Can",
        -10.419236183166504
      ],
      [
        "OS",
        -10.41932487487793
      ],
      [
        "などが",
        -10.419411659240723
      ],
      [
        "時代の",
        -10.419659614562988
      ],
      [
        "ung",
        -10.42076301574707
      ],
      [
        "ところ",
        -10.420829772949219
      ],
      [
        "various",
        -10.420928955078125
      ],
      [
        "FA",
        -10.420987129211426
      ],
      [
        "最も",
        -10.42124080657959
      ],
      [
        "berg",
        -10.421271324157715
      ],
      [
        "Township",
        -10.421340942382812
      ],
      [
        "終了",
        -10.422041893005371
      ],
      [
        "pi",
        -10.422432899475098
      ],
      [
        "together",
        -10.422625541687012
      ],
      [
        "若",
        -10.422926902770996
      ],
      [
        "料理",
        -10.423234939575195
      ],
      [
        "contains",
        -10.423487663269043
      ],
      [
        "AC",
        -10.424192428588867
      ],
      [
        "Team",
        -10.426497459411621
      ],
      [
        "政策",
        -10.426538467407227
      ],
      [
        "宿",
        -10.42654800415039
      ],
      [
        "En",
        -10.427408218383789
      ],
      [
        "スタ",
        -10.427497863769531
      ],
      [
        "状",
        -10.427990913391113
      ],
      [
        "production",
        -10.42822551727295
      ],
      [
        "指定",
        -10.4288911819458
      ],
      [
        "Year",
        -10.428950309753418
      ],
      [
        "ard",
        -10.429486274719238
      ],
      [
        "Sun",
        -10.4298095703125
      ],
      [
        "設置",
        -10.429960250854492
      ],
      [
        "business",
        -10.430398941040039
      ],
      [
        "病",
        -10.431219100952148
      ],
      [
        "対応",
        -10.431432723999023
      ],
      [
        "年代",
        -10.431472778320312
      ],
      [
        "新聞",
        -10.431770324707031
      ],
      [
        "を中心に",
        -10.432003021240234
      ],
      [
        "points",
        -10.432110786437988
      ],
      [
        "竹",
        -10.43234920501709
      ],
      [
        "Greek",
        -10.432942390441895
      ],
      [
        "造",
        -10.43342399597168
      ],
      [
        "文学",
        -10.433842658996582
      ],
      [
        "俊",
        -10.43431568145752
      ],
      [
        "恋",
        -10.434412956237793
      ],
      [
        "世紀",
        -10.435051918029785
      ],
      [
        "Board",
        -10.435230255126953
      ],
      [
        "Part",
        -10.435290336608887
      ],
      [
        "運営",
        -10.435314178466797
      ],
      [
        "セット",
        -10.436018943786621
      ],
      [
        "Assembly",
        -10.436351776123047
      ],
      [
        "women",
        -10.436408996582031
      ],
      [
        "パリ",
        -10.43646240234375
      ],
      [
        "裏",
        -10.436729431152344
      ],
      [
        "宝",
        -10.436874389648438
      ],
      [
        "Geographic",
        -10.43687629699707
      ],
      [
        "Publishing",
        -10.437027931213379
      ],
      [
        "電気",
        -10.437487602233887
      ],
      [
        "個人",
        -10.43757152557373
      ],
      [
        "シティ",
        -10.437956809997559
      ],
      [
        "mid",
        -10.438556671142578
      ],
      [
        "以外の",
        -10.438946723937988
      ],
      [
        "[]",
        -10.439056396484375
      ],
      [
        "店舗",
        -10.439547538757324
      ],
      [
        "利用",
        -10.439770698547363
      ],
      [
        "Minister",
        -10.440091133117676
      ],
      [
        "capital",
        -10.440213203430176
      ],
      [
        "power",
        -10.440526962280273
      ],
      [
        "結果",
        -10.440582275390625
      ],
      [
        "ヨーロッパ",
        -10.441177368164062
      ],
      [
        "ルー",
        -10.441261291503906
      ],
      [
        "構成",
        -10.44129467010498
      ],
      [
        "ck",
        -10.442117691040039
      ],
      [
        "していたが",
        -10.442201614379883
      ],
      [
        "ring",
        -10.442706108093262
      ],
      [
        "mann",
        -10.442816734313965
      ],
      [
        "Two",
        -10.443161010742188
      ],
      [
        "names",
        -10.443609237670898
      ],
      [
        "SE",
        -10.444121360778809
      ],
      [
        "ビデオ",
        -10.444183349609375
      ],
      [
        "ドン",
        -10.44477653503418
      ],
      [
        "によれば",
        -10.444933891296387
      ],
      [
        "options",
        -10.44515609741211
      ],
      [
        "request",
        -10.445253372192383
      ],
      [
        "Node",
        -10.445686340332031
      ],
      [
        "せず",
        -10.445844650268555
      ],
      [
        "ライ",
        -10.446133613586426
      ],
      [
        "ated",
        -10.446623802185059
      ],
      [
        "ach",
        -10.44694709777832
      ],
      [
        "lang",
        -10.447339057922363
      ],
      [
        "ダン",
        -10.447991371154785
      ],
      [
        "Route",
        -10.448161125183105
      ],
      [
        "トゥ",
        -10.448541641235352
      ],
      [
        "described",
        -10.448769569396973
      ],
      [
        "キン",
        -10.448895454406738
      ],
      [
        "services",
        -10.448906898498535
      ],
      [
        "を持ち",
        -10.449766159057617
      ],
      [
        "{\\",
        -10.450146675109863
      ],
      [
        "que",
        -10.450161933898926
      ],
      [
        "区間",
        -10.450373649597168
      ],
      [
        "製造",
        -10.450626373291016
      ],
      [
        "board",
        -10.450845718383789
      ],
      [
        "Pa",
        -10.45085334777832
      ],
      [
        "events",
        -10.45173454284668
      ],
      [
        "action",
        -10.452584266662598
      ],
      [
        "sur",
        -10.452840805053711
      ],
      [
        "フェ",
        -10.453192710876465
      ],
      [
        "Some",
        -10.453581809997559
      ],
      [
        "常",
        -10.454042434692383
      ],
      [
        "EP",
        -10.454493522644043
      ],
      [
        "width",
        -10.454710960388184
      ],
      [
        "Law",
        -10.455029487609863
      ],
      [
        "向け",
        -10.4551420211792
      ],
      [
        "高橋",
        -10.455196380615234
      ],
      [
        "昌",
        -10.45547866821289
      ],
      [
        "カップ",
        -10.455846786499023
      ],
      [
        "事務所",
        -10.455872535705566
      ],
      [
        "を見",
        -10.456302642822266
      ],
      [
        "ハン",
        -10.456338882446289
      ],
      [
        "バイ",
        -10.45733642578125
      ],
      [
        "少女",
        -10.457898139953613
      ],
      [
        "Google",
        -10.458002090454102
      ],
      [
        "なし",
        -10.458106994628906
      ],
      [
        "作家",
        -10.458768844604492
      ],
      [
        "雲",
        -10.4587984085083
      ],
      [
        "ページを見つけた",
        -10.45888614654541
      ],
      [
        "このページへリンクしている",
        -10.458910942077637
      ],
      [
        "リンクを適切な項目に張り替えて",
        -10.458919525146484
      ],
      [
        "周",
        -10.459237098693848
      ],
      [
        "アメリカの",
        -10.459696769714355
      ],
      [
        "山田",
        -10.45997428894043
      ],
      [
        "卒業",
        -10.460098266601562
      ],
      [
        "しか",
        -10.460205078125
      ],
      [
        "sk",
        -10.460348129272461
      ],
      [
        "日まで",
        -10.46038818359375
      ],
      [
        "製品",
        -10.46042537689209
      ],
      [
        "オン",
        -10.460894584655762
      ],
      [
        "novel",
        -10.461360931396484
      ],
      [
        "吉田",
        -10.46219539642334
      ],
      [
        "ology",
        -10.4629487991333
      ],
      [
        "楽曲",
        -10.463285446166992
      ],
      [
        "先案内のために",
        -10.463539123535156
      ],
      [
        "曖昧さ回避のためのページです",
        -10.463736534118652
      ],
      [
        "define",
        -10.46377944946289
      ],
      [
        "domain",
        -10.46419906616211
      ],
      [
        "悪",
        -10.464323043823242
      ],
      [
        "originally",
        -10.465134620666504
      ],
      [
        "なく",
        -10.465278625488281
      ],
      [
        "northern",
        -10.465483665466309
      ],
      [
        "犬",
        -10.4657621383667
      ],
      [
        "plant",
        -10.465930938720703
      ],
      [
        "ケン",
        -10.466278076171875
      ],
      [
        "ski",
        -10.466486930847168
      ],
      [
        "俳優",
        -10.466726303100586
      ],
      [
        "界",
        -10.466947555541992
      ],
      [
        "が行われた",
        -10.467366218566895
      ],
      [
        "メディア",
        -10.468095779418945
      ],
      [
        "break",
        -10.468406677246094
      ],
      [
        "Cambridge",
        -10.468570709228516
      ],
      [
        "dy",
        -10.46865463256836
      ],
      [
        "ことができる",
        -10.469276428222656
      ],
      [
        "善",
        -10.469413757324219
      ],
      [
        "appeared",
        -10.470999717712402
      ],
      [
        "ハー",
        -10.471081733703613
      ],
      [
        "pro",
        -10.471505165100098
      ],
      [
        "澤",
        -10.4716215133667
      ],
      [
        "Navy",
        -10.47183609008789
      ],
      [
        "surname",
        -10.472055435180664
      ],
      [
        "テン",
        -10.472574234008789
      ],
      [
        "順",
        -10.472614288330078
      ],
      [
        "Biography",
        -10.47282600402832
      ],
      [
        "オリジナル",
        -10.47297477722168
      ],
      [
        "these",
        -10.473146438598633
      ],
      [
        "代目",
        -10.473213195800781
      ],
      [
        "女優",
        -10.473298072814941
      ],
      [
        "Search",
        -10.47367000579834
      ],
      [
        "方面",
        -10.473822593688965
      ],
      [
        "設立",
        -10.473875999450684
      ],
      [
        "Jo",
        -10.474120140075684
      ],
      [
        "ber",
        -10.47494888305664
      ],
      [
        "なら",
        -10.475301742553711
      ],
      [
        "Studies",
        -10.476054191589355
      ],
      [
        "喜",
        -10.476101875305176
      ],
      [
        "lib",
        -10.47657585144043
      ],
      [
        "勝利",
        -10.477657318115234
      ],
      [
        "トップ",
        -10.477858543395996
      ],
      [
        "お探しの",
        -10.47917366027832
      ],
      [
        "選手権",
        -10.48052978515625
      ],
      [
        "独立",
        -10.481546401977539
      ],
      [
        "反",
        -10.481986045837402
      ],
      [
        "産",
        -10.482661247253418
      ],
      [
        "在",
        -10.482976913452148
      ],
      [
        "栄",
        -10.483057975769043
      ],
      [
        "eastern",
        -10.483229637145996
      ],
      [
        "百",
        -10.48408317565918
      ],
      [
        "ヴ",
        -10.484146118164062
      ],
      [
        "ゲスト",
        -10.484188079833984
      ],
      [
        "著",
        -10.48472785949707
      ],
      [
        "ho",
        -10.485343933105469
      ],
      [
        "Na",
        -10.4857177734375
      ],
      [
        "酒",
        -10.485918045043945
      ],
      [
        "戦で",
        -10.486868858337402
      ],
      [
        "ˈ",
        -10.486882209777832
      ],
      [
        "yl",
        -10.487436294555664
      ],
      [
        "神戸",
        -10.488582611083984
      ],
      [
        "Mi",
        -10.488600730895996
      ],
      [
        "ker",
        -10.488907814025879
      ],
      [
        "のか",
        -10.4889497756958
      ],
      [
        "program",
        -10.489421844482422
      ],
      [
        "チェ",
        -10.490224838256836
      ],
      [
        "tic",
        -10.49026107788086
      ],
      [
        "Blue",
        -10.49038314819336
      ],
      [
        "砲",
        -10.490909576416016
      ],
      [
        "Bi",
        -10.491215705871582
      ],
      [
        "セン",
        -10.491424560546875
      ],
      [
        "western",
        -10.49195384979248
      ],
      [
        "発表",
        -10.49276351928711
      ],
      [
        "Edward",
        -10.492801666259766
      ],
      [
        "commune",
        -10.492863655090332
      ],
      [
        "political",
        -10.49327278137207
      ],
      [
        "ブルー",
        -10.493361473083496
      ],
      [
        "仏",
        -10.493943214416504
      ],
      [
        "tz",
        -10.494182586669922
      ],
      [
        "諸",
        -10.494291305541992
      ],
      [
        "ろ",
        -10.494963645935059
      ],
      [
        "often",
        -10.495060920715332
      ],
      [
        "Har",
        -10.495141983032227
      ],
      [
        "');",
        -10.495203971862793
      ],
      [
        "ph",
        -10.495735168457031
      ],
      [
        "ど",
        -10.49634075164795
      ],
      [
        "ぶ",
        -10.496849060058594
      ],
      [
        "center",
        -10.497095108032227
      ],
      [
        "half",
        -10.497207641601562
      ],
      [
        "Sam",
        -10.497499465942383
      ],
      [
        "バージョン",
        -10.498003959655762
      ],
      [
        "ik",
        -10.49803638458252
      ],
      [
        "渡",
        -10.498156547546387
      ],
      [
        "Online",
        -10.498530387878418
      ],
      [
        "Arts",
        -10.498594284057617
      ],
      [
        "言語",
        -10.498825073242188
      ],
      [
        "iz",
        -10.498869895935059
      ],
      [
        "かつ",
        -10.499283790588379
      ],
      [
        "child",
        -10.499540328979492
      ],
      [
        "._",
        -10.499907493591309
      ],
      [
        "以上の",
        -10.500187873840332
      ],
      [
        "為",
        -10.500391960144043
      ],
      [
        "Request",
        -10.500551223754883
      ],
      [
        "Frank",
        -10.500810623168945
      ],
      [
        "参加",
        -10.50090503692627
      ],
      [
        "市の",
        -10.501063346862793
      ],
      [
        "廃止",
        -10.50133228302002
      ],
      [
        "Order",
        -10.502018928527832
      ],
      [
        "NO",
        -10.502130508422852
      ],
      [
        "魔",
        -10.502137184143066
      ],
      [
        "chi",
        -10.502191543579102
      ],
      [
        "増",
        -10.502252578735352
      ],
      [
        "運転",
        -10.502686500549316
      ],
      [
        "部分",
        -10.502887725830078
      ],
      [
        "跡",
        -10.503212928771973
      ],
      [
        "次郎",
        -10.503763198852539
      ],
      [
        "cc",
        -10.50432014465332
      ],
      [
        "魚",
        -10.504661560058594
      ],
      [
        "Port",
        -10.504826545715332
      ],
      [
        "lt",
        -10.505072593688965
      ],
      [
        "席",
        -10.505167961120605
      ],
      [
        "Si",
        -10.505642890930176
      ],
      [
        "街",
        -10.505762100219727
      ],
      [
        "Volume",
        -10.50650405883789
      ],
      [
        "ob",
        -10.506772994995117
      ],
      [
        "敗",
        -10.50733757019043
      ],
      [
        "をする",
        -10.508020401000977
      ],
      [
        "president",
        -10.508406639099121
      ],
      [
        "あります",
        -10.508408546447754
      ],
      [
        "ness",
        -10.508516311645508
      ],
      [
        "pl",
        -10.50861930847168
      ],
      [
        "\";",
        -10.508732795715332
      ],
      [
        "Other",
        -10.509123802185059
      ],
      [
        "タイプ",
        -10.509820938110352
      ],
      [
        "owned",
        -10.510357856750488
      ],
      [
        "評価",
        -10.510412216186523
      ],
      [
        "海外",
        -10.51085376739502
      ],
      [
        "Ni",
        -10.511124610900879
      ],
      [
        "でもある",
        -10.511281967163086
      ],
      [
        "いて",
        -10.511392593383789
      ],
      [
        "finished",
        -10.511502265930176
      ],
      [
        "ようになった",
        -10.511804580688477
      ],
      [
        "edition",
        -10.512340545654297
      ],
      [
        "AS",
        -10.512633323669434
      ],
      [
        "Historical",
        -10.513354301452637
      ],
      [
        "市場",
        -10.513562202453613
      ],
      [
        "ショー",
        -10.51468276977539
      ],
      [
        "山本",
        -10.51512336730957
      ],
      [
        "Jean",
        -10.515143394470215
      ],
      [
        "image",
        -10.515936851501465
      ],
      [
        "表現",
        -10.51630687713623
      ],
      [
        "ok",
        -10.517523765563965
      ],
      [
        "遊",
        -10.517633438110352
      ],
      [
        "ていたが",
        -10.517724990844727
      ],
      [
        "チャンネル",
        -10.517794609069824
      ],
      [
        "動物",
        -10.517826080322266
      ],
      [
        "í",
        -10.517876625061035
      ],
      [
        "read",
        -10.517991065979004
      ],
      [
        "歌手",
        -10.519011497497559
      ],
      [
        "協力",
        -10.519461631774902
      ],
      [
        "competition",
        -10.519491195678711
      ],
      [
        "ive",
        -10.519638061523438
      ],
      [
        "ミュージック",
        -10.519732475280762
      ],
      [
        "強",
        -10.520569801330566
      ],
      [
        "輸送",
        -10.520715713500977
      ],
      [
        "旅",
        -10.521455764770508
      ],
      [
        "なる",
        -10.521686553955078
      ],
      [
        "ino",
        -10.521902084350586
      ],
      [
        "ジャパン",
        -10.521926879882812
      ],
      [
        "lost",
        -10.522184371948242
      ],
      [
        "Results",
        -10.522193908691406
      ],
      [
        "ことがある",
        -10.522193908691406
      ],
      [
        "fire",
        -10.522278785705566
      ],
      [
        "インド",
        -10.522348403930664
      ],
      [
        "小林",
        -10.522478103637695
      ],
      [
        "Report",
        -10.522512435913086
      ],
      [
        "ED",
        -10.522726058959961
      ],
      [
        "するが",
        -10.523345947265625
      ],
      [
        "人は",
        -10.523767471313477
      ],
      [
        "舞台",
        -10.524076461791992
      ],
      [
        "図書館",
        -10.524725914001465
      ],
      [
        "霊",
        -10.524872779846191
      ],
      [
        "形式",
        -10.525771141052246
      ],
      [
        "トラ",
        -10.526907920837402
      ],
      [
        "Who",
        -10.527203559875488
      ],
      [
        "ナイト",
        -10.527268409729004
      ],
      [
        "篇",
        -10.52839469909668
      ],
      [
        "Swedish",
        -10.528619766235352
      ],
      [
        "裕",
        -10.528687477111816
      ],
      [
        "try",
        -10.528883934020996
      ],
      [
        "brother",
        -10.52905559539795
      ],
      [
        "輪",
        -10.529534339904785
      ],
      [
        "height",
        -10.529577255249023
      ],
      [
        "von",
        -10.52975082397461
      ],
      [
        "枚",
        -10.529905319213867
      ],
      [
        "ユニット",
        -10.530011177062988
      ],
      [
        "メートル",
        -10.530333518981934
      ],
      [
        "その他",
        -10.53170108795166
      ],
      [
        "どう",
        -10.532257080078125
      ],
      [
        "前の",
        -10.532355308532715
      ],
      [
        "事故",
        -10.53304672241211
      ],
      [
        "idae",
        -10.533193588256836
      ],
      [
        "層",
        -10.533257484436035
      ],
      [
        "util",
        -10.53335189819336
      ],
      [
        "lead",
        -10.53355884552002
      ],
      [
        "hi",
        -10.533671379089355
      ],
      [
        "仲",
        -10.533721923828125
      ],
      [
        "Mont",
        -10.533763885498047
      ],
      [
        "業務",
        -10.534626007080078
      ],
      [
        "southern",
        -10.534746170043945
      ],
      [
        "骨",
        -10.535222053527832
      ],
      [
        "Bell",
        -10.535407066345215
      ],
      [
        "Kingdom",
        -10.535799980163574
      ],
      [
        "search",
        -10.535823822021484
      ],
      [
        "列車",
        -10.535872459411621
      ],
      [
        "塩",
        -10.535908699035645
      ],
      [
        "Voivodeship",
        -10.536003112792969
      ],
      [
        "昭",
        -10.53648853302002
      ],
      [
        "Chart",
        -10.536571502685547
      ],
      [
        "features",
        -10.536581039428711
      ],
      [
        "similar",
        -10.536593437194824
      ],
      [
        "gi",
        -10.537151336669922
      ],
      [
        "の娘",
        -10.537666320800781
      ],
      [
        "以来",
        -10.537843704223633
      ],
      [
        "向",
        -10.538233757019043
      ],
      [
        "演奏",
        -10.5383939743042
      ],
      [
        "居",
        -10.538494110107422
      ],
      [
        "ダム",
        -10.5386323928833
      ],
      [
        "までの",
        -10.538741111755371
      ],
      [
        "運行",
        -10.538969993591309
      ],
      [
        "Model",
        -10.539084434509277
      ],
      [
        "having",
        -10.53908920288086
      ],
      [
        "Show",
        -10.539734840393066
      ],
      [
        "ブラック",
        -10.539734840393066
      ],
      [
        "です",
        -10.539910316467285
      ],
      [
        "FIFA",
        -10.539983749389648
      ],
      [
        "興",
        -10.540445327758789
      ],
      [
        "ii",
        -10.540757179260254
      ],
      [
        "方法",
        -10.540828704833984
      ],
      [
        "space",
        -10.541055679321289
      ],
      [
        "away",
        -10.54115104675293
      ],
      [
        "いい",
        -10.54133129119873
      ],
      [
        "design",
        -10.541409492492676
      ],
      [
        "ユ",
        -10.54157543182373
      ],
      [
        "Little",
        -10.541827201843262
      ],
      [
        "南部",
        -10.5421142578125
      ],
      [
        "レス",
        -10.542515754699707
      ],
      [
        "―",
        -10.542597770690918
      ],
      [
        "gu",
        -10.542808532714844
      ],
      [
        "盤",
        -10.54319953918457
      ],
      [
        "はこの",
        -10.543290138244629
      ],
      [
        "ハウス",
        -10.543437004089355
      ],
      [
        "Education",
        -10.543986320495605
      ],
      [
        "ダイ",
        -10.544353485107422
      ],
      [
        "bl",
        -10.544645309448242
      ],
      [
        "ると",
        -10.544963836669922
      ],
      [
        "連続",
        -10.545516014099121
      ],
      [
        "編集",
        -10.545958518981934
      ],
      [
        "Sa",
        -10.546091079711914
      ],
      [
        "Count",
        -10.546246528625488
      ],
      [
        "Country",
        -10.54732894897461
      ],
      [
        "運用",
        -10.548012733459473
      ],
      [
        "学科",
        -10.548044204711914
      ],
      [
        "manager",
        -10.548455238342285
      ],
      [
        "su",
        -10.548659324645996
      ],
      [
        "database",
        -10.549016952514648
      ],
      [
        "社長",
        -10.549463272094727
      ],
      [
        "Northern",
        -10.549820899963379
      ],
      [
        "福岡",
        -10.550065994262695
      ],
      [
        "などを",
        -10.550610542297363
      ],
      [
        "茂",
        -10.550971031188965
      ],
      [
        "できない",
        -10.551288604736328
      ],
      [
        "サッカー",
        -10.551450729370117
      ],
      [
        "among",
        -10.551886558532715
      ],
      [
        "Out",
        -10.551947593688965
      ],
      [
        "差",
        -10.552488327026367
      ],
      [
        "config",
        -10.55250358581543
      ],
      [
        "RE",
        -10.552746772766113
      ],
      [
        "Scotland",
        -10.552919387817383
      ],
      [
        "Pennsylvania",
        -10.553169250488281
      ],
      [
        "出身",
        -10.55321979522705
      ],
      [
        "陸軍",
        -10.553254127502441
      ],
      [
        "登録",
        -10.554549217224121
      ],
      [
        "Mexico",
        -10.55466365814209
      ],
      [
        "顔",
        -10.554888725280762
      ],
      [
        "Daniel",
        -10.555089950561523
      ],
      [
        "客",
        -10.55528450012207
      ],
      [
        "省",
        -10.555352210998535
      ],
      [
        "主義",
        -10.555680274963379
      ],
      [
        "プレイ",
        -10.55710220336914
      ],
      [
        "Van",
        -10.557435035705566
      ],
      [
        "沼",
        -10.55754280090332
      ],
      [
        "king",
        -10.557981491088867
      ],
      [
        "本部",
        -10.558212280273438
      ],
      [
        "術",
        -10.558472633361816
      ],
      [
        "Record",
        -10.558661460876465
      ],
      [
        "デル",
        -10.55889892578125
      ],
      [
        "ストーリー",
        -10.559555053710938
      ],
      [
        "ヨ",
        -10.559831619262695
      ],
      [
        "pur",
        -10.559903144836426
      ],
      [
        "営業所",
        -10.56005573272705
      ],
      [
        "Special",
        -10.560096740722656
      ],
      [
        "管",
        -10.560552597045898
      ],
      [
        "表示",
        -10.56070327758789
      ],
      [
        "飛行",
        -10.561779022216797
      ],
      [
        "駅前",
        -10.561882019042969
      ],
      [
        "段",
        -10.562492370605469
      ],
      [
        "control",
        -10.562923431396484
      ],
      [
        "選挙",
        -10.563033103942871
      ],
      [
        "ロス",
        -10.563055038452148
      ],
      [
        "\"></",
        -10.563100814819336
      ],
      [
        "/>",
        -10.563177108764648
      ],
      [
        "時には",
        -10.563211441040039
      ],
      [
        "response",
        -10.563349723815918
      ],
      [
        "ized",
        -10.563366889953613
      ],
      [
        "sold",
        -10.563504219055176
      ],
      [
        "ish",
        -10.564352035522461
      ],
      [
        "songs",
        -10.564494132995605
      ],
      [
        "張",
        -10.5647611618042
      ],
      [
        "同時に",
        -10.565193176269531
      ],
      [
        "号線",
        -10.565733909606934
      ],
      [
        "モード",
        -10.565783500671387
      ],
      [
        "actor",
        -10.56579875946045
      ],
      [
        "計",
        -10.566237449645996
      ],
      [
        "こともある",
        -10.566445350646973
      ],
      [
        "優",
        -10.566633224487305
      ],
      [
        "gr",
        -10.566864013671875
      ],
      [
        "ること",
        -10.567207336425781
      ],
      [
        "トリ",
        -10.567373275756836
      ],
      [
        "市民",
        -10.567522048950195
      ],
      [
        "Game",
        -10.567851066589355
      ],
      [
        "permanent",
        -10.567885398864746
      ],
      [
        "Sub",
        -10.56824016571045
      ],
      [
        "Geological",
        -10.568428993225098
      ],
      [
        "ating",
        -10.568577766418457
      ],
      [
        "Array",
        -10.56881046295166
      ],
      [
        "純",
        -10.568836212158203
      ],
      [
        "copy",
        -10.568855285644531
      ],
      [
        "好",
        -10.569038391113281
      ],
      [
        "income",
        -10.569664001464844
      ],
      [
        "ref",
        -10.570784568786621
      ],
      [
        "なり",
        -10.570784568786621
      ],
      [
        "医療",
        -10.570784568786621
      ],
      [
        "泰",
        -10.570944786071777
      ],
      [
        "効果",
        -10.572295188903809
      ],
      [
        "王国",
        -10.572297096252441
      ],
      [
        "wrote",
        -10.57246208190918
      ],
      [
        "om",
        -10.572515487670898
      ],
      [
        "アイドル",
        -10.57266902923584
      ],
      [
        "assert",
        -10.572861671447754
      ],
      [
        "ザー",
        -10.572917938232422
      ],
      [
        "LIVE",
        -10.573332786560059
      ],
      [
        "にあたる",
        -10.57351016998291
      ],
      [
        "vs",
        -10.573670387268066
      ],
      [
        "become",
        -10.57422924041748
      ],
      [
        "台湾",
        -10.57452392578125
      ],
      [
        "students",
        -10.574670791625977
      ],
      [
        "者の",
        -10.575730323791504
      ],
      [
        "レー",
        -10.576435089111328
      ],
      [
        "IS",
        -10.576447486877441
      ],
      [
        "AL",
        -10.576560974121094
      ],
      [
        "tu",
        -10.57667350769043
      ],
      [
        "集団",
        -10.576898574829102
      ],
      [
        "君",
        -10.577313423156738
      ],
      [
        "Event",
        -10.577412605285645
      ],
      [
        "client",
        -10.578177452087402
      ],
      [
        "ER",
        -10.578531265258789
      ],
      [
        "を務める",
        -10.57859992980957
      ],
      [
        "人気",
        -10.578767776489258
      ],
      [
        "乗",
        -10.58011245727539
      ],
      [
        "値",
        -10.581019401550293
      ],
      [
        "ator",
        -10.581457138061523
      ],
      [
        "スペイン",
        -10.581567764282227
      ],
      [
        "ミー",
        -10.581788063049316
      ],
      [
        "低",
        -10.582255363464355
      ],
      [
        "メン",
        -10.582789421081543
      ],
      [
        "star",
        -10.583305358886719
      ],
      [
        "商品",
        -10.584087371826172
      ],
      [
        "宏",
        -10.584699630737305
      ],
      [
        "PA",
        -10.585089683532715
      ],
      [
        "アナウンサー",
        -10.585107803344727
      ],
      [
        "CA",
        -10.58519172668457
      ],
      [
        "jo",
        -10.585500717163086
      ],
      [
        "check",
        -10.586236000061035
      ],
      [
        "逆",
        -10.5862455368042
      ],
      [
        "medal",
        -10.586274147033691
      ],
      [
        "required",
        -10.586435317993164
      ],
      [
        "移動",
        -10.586466789245605
      ],
      [
        "Pre",
        -10.587770462036133
      ],
      [
        "popular",
        -10.58777904510498
      ],
      [
        "Context",
        -10.587923049926758
      ],
      [
        "公式",
        -10.587923049926758
      ],
      [
        "Local",
        -10.588216781616211
      ],
      [
        "character",
        -10.588323593139648
      ],
      [
        "host",
        -10.588617324829102
      ],
      [
        "example",
        -10.588714599609375
      ],
      [
        "期間",
        -10.5891695022583
      ],
      [
        "Gr",
        -10.589381217956543
      ],
      [
        "キング",
        -10.590131759643555
      ],
      [
        "ab",
        -10.590311050415039
      ],
      [
        "sports",
        -10.590428352355957
      ],
      [
        "デジタル",
        -10.590871810913086
      ],
      [
        "国民",
        -10.591313362121582
      ],
      [
        "電子",
        -10.591475486755371
      ],
      [
        "整備",
        -10.591764450073242
      ],
      [
        "伊藤",
        -10.5928955078125
      ],
      [
        "営業",
        -10.593910217285156
      ],
      [
        "seat",
        -10.594427108764648
      ],
      [
        "国内",
        -10.594594955444336
      ],
      [
        "最高",
        -10.594759941101074
      ],
      [
        "bass",
        -10.594855308532715
      ],
      [
        "Vi",
        -10.59485912322998
      ],
      [
        "を受けて",
        -10.594877243041992
      ],
      [
        "万円",
        -10.595081329345703
      ],
      [
        "ent",
        -10.595775604248047
      ],
      [
        "牛",
        -10.595839500427246
      ],
      [
        "持",
        -10.596009254455566
      ],
      [
        "ライト",
        -10.596101760864258
      ],
      [
        "一方で",
        -10.596298217773438
      ],
      [
        "三郎",
        -10.596357345581055
      ],
      [
        "Da",
        -10.596968650817871
      ],
      [
        "retired",
        -10.597715377807617
      ],
      [
        "枝",
        -10.597833633422852
      ],
      [
        "build",
        -10.59796142578125
      ],
      [
        "artist",
        -10.598236083984375
      ],
      [
        "ジン",
        -10.59892749786377
      ],
      [
        "ini",
        -10.598962783813477
      ],
      [
        "hr",
        -10.599014282226562
      ],
      [
        "Com",
        -10.599345207214355
      ],
      [
        "matches",
        -10.599443435668945
      ],
      [
        "million",
        -10.599452018737793
      ],
      [
        "味",
        -10.599479675292969
      ],
      [
        "ユー",
        -10.59972858428955
      ],
      [
        "機械",
        -10.599802017211914
      ],
      [
        "調",
        -10.600669860839844
      ],
      [
        "YouTube",
        -10.600959777832031
      ],
      [
        "年生",
        -10.6014986038208
      ],
      [
        "without",
        -10.601725578308105
      ],
      [
        "])",
        -10.601848602294922
      ],
      [
        "Series",
        -10.60185432434082
      ],
      [
        "],",
        -10.6022367477417
      ],
      [
        "Po",
        -10.602298736572266
      ],
      [
        "府",
        -10.602333068847656
      ],
      [
        "作業",
        -10.602502822875977
      ],
      [
        "Valley",
        -10.602545738220215
      ],
      [
        "ou",
        -10.602747917175293
      ],
      [
        "ぐ",
        -10.603684425354004
      ],
      [
        "collection",
        -10.603687286376953
      ],
      [
        "解",
        -10.6044921875
      ],
      [
        "ニューヨーク",
        -10.60472583770752
      ],
      [
        "competed",
        -10.604901313781738
      ],
      [
        "regional",
        -10.60742473602295
      ],
      [
        "median",
        -10.607521057128906
      ],
      [
        "修",
        -10.607549667358398
      ],
      [
        "ていない",
        -10.607789039611816
      ],
      [
        "クス",
        -10.6084623336792
      ],
      [
        "率",
        -10.60871696472168
      ],
      [
        "をしている",
        -10.609173774719238
      ],
      [
        "パーク",
        -10.610024452209473
      ],
      [
        "few",
        -10.610445022583008
      ],
      [
        "よく",
        -10.610508918762207
      ],
      [
        "cho",
        -10.610638618469238
      ],
      [
        "master",
        -10.610800743103027
      ],
      [
        "background",
        -10.61091423034668
      ],
      [
        "Pan",
        -10.611343383789062
      ],
      [
        "清水",
        -10.611607551574707
      ],
      [
        "輝",
        -10.611772537231445
      ],
      [
        "tournament",
        -10.612262725830078
      ],
      [
        "軽",
        -10.612813949584961
      ],
      [
        "Angeles",
        -10.613306999206543
      ],
      [
        "たが",
        -10.613389015197754
      ],
      [
        "テレビ東京",
        -10.613492965698242
      ],
      [
        "ベース",
        -10.613523483276367
      ],
      [
        "武器",
        -10.613531112670898
      ],
      [
        "Region",
        -10.613615989685059
      ],
      [
        "ジャン",
        -10.613758087158203
      ],
      [
        "ray",
        -10.614116668701172
      ],
      [
        "plan",
        -10.614315032958984
      ],
      [
        "what",
        -10.614439010620117
      ],
      [
        "大統領",
        -10.61455249786377
      ],
      [
        "update",
        -10.614810943603516
      ],
      [
        "Night",
        -10.614842414855957
      ],
      [
        "セル",
        -10.615243911743164
      ],
      [
        "Congress",
        -10.615351676940918
      ],
      [
        "入り",
        -10.615384101867676
      ],
      [
        "Ad",
        -10.616536140441895
      ],
      [
        "Hot",
        -10.61666202545166
      ],
      [
        "湯",
        -10.616827964782715
      ],
      [
        "ティー",
        -10.616873741149902
      ],
      [
        "山口",
        -10.616898536682129
      ],
      [
        "建",
        -10.617283821105957
      ],
      [
        "野球",
        -10.617406845092773
      ],
      [
        "最終",
        -10.617586135864258
      ],
      [
        "fer",
        -10.618721961975098
      ],
      [
        "Bank",
        -10.618753433227539
      ],
      [
        "Tri",
        -10.618858337402344
      ],
      [
        "行政",
        -10.61965560913086
      ],
      [
        "awarded",
        -10.62095832824707
      ],
      [
        "find",
        -10.621113777160645
      ],
      [
        "Sal",
        -10.621322631835938
      ],
      [
        ")※",
        -10.6214017868042
      ],
      [
        "刀",
        -10.621617317199707
      ],
      [
        "Free",
        -10.621654510498047
      ],
      [
        "ん",
        -10.62224292755127
      ],
      [
        "にして",
        -10.62244701385498
      ],
      [
        "上で",
        -10.623205184936523
      ],
      [
        "max",
        -10.62368392944336
      ],
      [
        "トー",
        -10.623741149902344
      ],
      [
        "彼",
        -10.62389850616455
      ],
      [
        "ピアノ",
        -10.623944282531738
      ],
      [
        "翼",
        -10.623985290527344
      ],
      [
        "極",
        -10.624103546142578
      ],
      [
        "Centre",
        -10.624154090881348
      ],
      [
        "Scottish",
        -10.624213218688965
      ],
      [
        "ダンス",
        -10.624329566955566
      ],
      [
        "Mr",
        -10.624523162841797
      ],
      [
        "IV",
        -10.62511157989502
      ],
      [
        "が多く",
        -10.62514591217041
      ],
      [
        "Pop",
        -10.625598907470703
      ],
      [
        "bridge",
        -10.626113891601562
      ],
      [
        "Network",
        -10.626178741455078
      ],
      [
        "サイ",
        -10.626198768615723
      ],
      [
        "Version",
        -10.62628173828125
      ],
      [
        "内に",
        -10.626382827758789
      ],
      [
        "レッド",
        -10.626387596130371
      ],
      [
        "せん",
        -10.626409530639648
      ],
      [
        "場合は",
        -10.626420021057129
      ],
      [
        "に位置する",
        -10.626449584960938
      ],
      [
        "BC",
        -10.626628875732422
      ],
      [
        "working",
        -10.626687049865723
      ],
      [
        "ッ",
        -10.62697982788086
      ],
      [
        "news",
        -10.627960205078125
      ],
      [
        "支店",
        -10.628067970275879
      ],
      [
        "自由",
        -10.628399848937988
      ],
      [
        "Carolina",
        -10.628406524658203
      ],
      [
        "片",
        -10.628629684448242
      ],
      [
        "ジョ",
        -10.6287202835083
      ],
      [
        "関東",
        -10.629162788391113
      ],
      [
        "Mal",
        -10.629176139831543
      ],
      [
        "AV",
        -10.629720687866211
      ],
      [
        "アップ",
        -10.629840850830078
      ],
      [
        "retrieved",
        -10.62988567352295
      ],
      [
        "books",
        -10.629945755004883
      ],
      [
        "People",
        -10.629992485046387
      ],
      [
        "island",
        -10.63012409210205
      ],
      [
        "例えば",
        -10.630172729492188
      ],
      [
        "cast",
        -10.632108688354492
      ],
      [
        "主人公",
        -10.632399559020996
      ],
      [
        "マーク",
        -10.632603645324707
      ],
      [
        "ting",
        -10.632835388183594
      ],
      [
        "これを",
        -10.632885932922363
      ],
      [
        "月の",
        -10.633160591125488
      ],
      [
        "black",
        -10.633606910705566
      ],
      [
        "special",
        -10.634227752685547
      ],
      [
        "細胞",
        -10.634769439697266
      ],
      [
        "unit",
        -10.635091781616211
      ],
      [
        "Ta",
        -10.635146141052246
      ],
      [
        "Pacific",
        -10.63638687133789
      ],
      [
        "存在",
        -10.63648796081543
      ],
      [
        "新たな",
        -10.636540412902832
      ],
      [
        "tracks",
        -10.636545181274414
      ],
      [
        "ju",
        -10.636602401733398
      ],
      [
        "の一つ",
        -10.636934280395508
      ],
      [
        "込み",
        -10.637428283691406
      ],
      [
        "令和",
        -10.637435913085938
      ],
      [
        "much",
        -10.637643814086914
      ],
      [
        "方式",
        -10.638715744018555
      ],
      [
        "かん",
        -10.639031410217285
      ],
      [
        "designed",
        -10.639473915100098
      ],
      [
        "られている",
        -10.6395263671875
      ],
      [
        "Young",
        -10.639765739440918
      ],
      [
        "research",
        -10.64035415649414
      ],
      [
        "making",
        -10.640578269958496
      ],
      [
        "一覧",
        -10.640776634216309
      ],
      [
        "エネルギー",
        -10.640836715698242
      ],
      [
        "ah",
        -10.640946388244629
      ],
      [
        "important",
        -10.641019821166992
      ],
      [
        "行為",
        -10.641317367553711
      ],
      [
        "stage",
        -10.641559600830078
      ],
      [
        "AP",
        -10.641626358032227
      ],
      [
        "このページは",
        -10.642502784729004
      ],
      [
        "茶",
        -10.642509460449219
      ],
      [
        "())",
        -10.642641067504883
      ],
      [
        "ance",
        -10.642682075500488
      ],
      [
        "Magazine",
        -10.642915725708008
      ],
      [
        "郎",
        -10.643341064453125
      ],
      [
        "工",
        -10.643774032592773
      ],
      [
        "once",
        -10.643818855285645
      ],
      [
        "そこで",
        -10.644108772277832
      ],
      [
        "令",
        -10.64430046081543
      ],
      [
        "magazine",
        -10.64455509185791
      ],
      [
        "様",
        -10.644776344299316
      ],
      [
        "households",
        -10.644993782043457
      ],
      [
        "GO",
        -10.645010948181152
      ],
      [
        "college",
        -10.645076751708984
      ],
      [
        "nil",
        -10.645423889160156
      ],
      [
        "学会",
        -10.645472526550293
      ],
      [
        "詩",
        -10.645526885986328
      ],
      [
        "ica",
        -10.645763397216797
      ],
      [
        "quot",
        -10.645795822143555
      ],
      [
        "Point",
        -10.64622974395752
      ],
      [
        "雨",
        -10.646249771118164
      ],
      [
        "ます",
        -10.646265029907227
      ],
      [
        "一部の",
        -10.646882057189941
      ],
      [
        "Gen",
        -10.647591590881348
      ],
      [
        "処理",
        -10.64769458770752
      ],
      [
        "縁",
        -10.648365020751953
      ],
      [
        "していない",
        -10.648383140563965
      ],
      [
        "阿",
        -10.648564338684082
      ],
      [
        "資料",
        -10.648865699768066
      ],
      [
        "Cross",
        -10.64895248413086
      ],
      [
[...]
